<unk>	0
<s>	0
</s>	0
.	-3.10168
▁I	-3.42728
▁the	-3.43577
,	-3.55238
▁and	-3.70932
▁a	-3.87338
▁to	-4.05918
'	-4.21102
▁it	-4.3544
▁of	-4.36752
▁is	-4.38944
▁for	-4.45022
▁in	-4.63042
s	-4.65526
▁are	-4.78519
▁	-4.81227
▁my	-4.82335
▁that	-4.90337
▁this	-4.93233
▁was	-4.99432
▁them	-5.02139
▁you	-5.03457
▁with	-5.07796
t	-5.07826
▁The	-5.08014
▁on	-5.08849
▁they	-5.09637
▁have	-5.10192
▁but	-5.19116
▁these	-5.30494
▁very	-5.32232
▁not	-5.32776
▁so	-5.4475
!	-5.52695
▁as	-5.53793
▁great	-5.58606
-	-5.62768
▁It	-5.6613
▁be	-5.66296
ing	-5.66433
▁comfortable	-5.67174
▁shoes	-5.70302
▁They	-5.72945
▁like	-5.74279
▁wear	-5.80473
▁size	-5.84582
▁good	-5.87046
▁can	-5.89606
▁just	-5.91793
▁His	-5.92683
▁one	-5.92832
▁all	-5.93675
ly	-5.9464
▁at	-5.95595
▁or	-5.99593
▁had	-5.99863
▁would	-5.99929
▁well	-6.00324
▁fit	-6.00682
▁me	-6.0361
▁(	-6.04473
▁your	-6.05508
y	-6.06842
▁more	-6.1058
ed	-6.1108
▁when	-6.12287
▁than	-6.12529
▁bought	-6.12889
▁from	-6.15232
▁up	-6.16945
▁out	-6.17154
▁if	-6.18809
▁were	-6.19549
▁too	-6.20001
▁will	-6.21993
▁pair	-6.25585
▁get	-6.25891
▁price	-6.27139
▁really	-6.27154
▁i	-6.27897
▁love	-6.28812
▁only	-6.29366
▁These	-6.30236
▁quality	-6.30328
▁look	-6.30894
m	-6.31322
▁shoe	-6.3137
▁B	-6.36053
ve	-6.36067
▁little	-6.376
▁time	-6.41743
▁am	-6.42325
▁buy	-6.42975
▁because	-6.44647
▁an	-6.45048
▁has	-6.4532
▁"	-6.45454
▁don	-6.45778
▁about	-6.46343
d	-6.46812
▁product	-6.48445
"	-6.50637
...	-6.51012
▁got	-6.52492
▁other	-6.53635
▁what	-6.53728
▁no	-6.57582
▁nice	-6.58037
)	-6.58181
▁bar	-6.59622
▁do	-6.61074
▁-	-6.61152
▁even	-6.6318
▁feet	-6.63363
re	-6.66014
▁much	-6.66026
▁made	-6.66421
▁also	-6.68822
▁wearing	-6.71396
▁find	-6.71612
▁ordered	-6.73111
▁been	-6.75757
▁some	-6.7582
▁which	-6.76126
▁after	-6.7665
▁back	-6.77989
▁bag	-6.82504
▁boots	-6.82649
▁looking	-6.83922
▁perfect	-6.84659
▁color	-6.84667
▁recommend	-6.84868
▁he	-6.85845
▁use	-6.86121
▁feel	-6.86583
▁He	-6.86782
▁day	-6.89316
▁To	-6.89516
e	-6.90817
▁go	-6.90835
▁Of	-6.90992
▁first	-6.91402
▁off	-6.92492
▁by	-6.927
▁A	-6.9391
▁cut	-6.93949
▁want	-6.94054
▁any	-6.94185
▁now	-6.96772
▁there	-6.96846
▁long	-6.96965
▁still	-6.98382
▁over	-6.9906
/	-7.0096
▁small	-7.0135
▁again	-7.01928
▁could	-7.03598
▁around	-7.03875
▁most	-7.04108
▁order	-7.05525
▁two	-7.062
▁socks	-7.06652
▁enough	-7.07141
▁right	-7.07945
▁better	-7.08762
▁best	-7.08985
▁work	-7.09038
▁bit	-7.09119
▁put	-7.095
▁received	-7.11367
▁think	-7.12082
▁Very	-7.12719
▁make	-7.13494
▁years	-7.14582
▁dress	-7.15696
▁item	-7.1578
▁did	-7.16643
▁found	-7.17449
▁big	-7.17866
▁looks	-7.18489
▁parts	-7.18559
▁soft	-7.18609
▁purchased	-7.18686
▁way	-7.191
▁Amazon	-7.19592
▁support	-7.19646
▁case	-7.19847
▁thing	-7.20245
▁purchase	-7.22101
▁never	-7.22521
▁style	-7.23107
▁last	-7.23158
▁we	-7.23382
▁who	-7.23408
▁leather	-7.24418
▁ever	-7.24988
▁keep	-7.25302
▁shirt	-7.26019
▁know	-7.26046
▁warm	-7.26559
▁need	-7.27895
▁colors	-7.27917
▁another	-7.28654
▁lot	-7.28792
▁high	-7.29024
▁without	-7.2988
▁worn	-7.30971
).	-7.31462
▁didn	-7.31891
ll	-7.31986
▁black	-7.3219
▁she	-7.32305
▁short	-7.33368
▁happy	-7.33374
▁come	-7.33906
▁does	-7.34595
▁pretty	-7.34602
▁though	-7.36078
▁Great	-7.36288
▁how	-7.36347
▁material	-7.36696
▁You	-7.36819
▁every	-7.37042
▁many	-7.37192
▁say	-7.37333
▁But	-7.38463
▁new	-7.38618
▁easy	-7.38872
▁see	-7.40661
▁fits	-7.41387
▁And	-7.41634
▁their	-7.42814
▁same	-7.42847
▁while	-7.43349
;	-7.43991
▁different	-7.44254
▁old	-7.44334
▁fabric	-7.44677
▁used	-7.45525
I	-7.45624
▁her	-7.4563
▁money	-7.4652
▁jeans	-7.4747
▁2	-7.47712
▁top	-7.48215
▁something	-7.48432
n	-7.4928
▁into	-7.50609
▁shipping	-7.50817
▁then	-7.51022
▁hard	-7.51299
▁run	-7.51443
▁worth	-7.52005
▁before	-7.52805
:	-7.53018
▁few	-7.533
▁down	-7.53888
▁tried	-7.54308
▁pleased	-7.54338
▁husband	-7.55316
▁year	-7.56144
▁large	-7.56466
▁through	-7.56502
▁3	-7.56674
▁thought	-7.57783
▁his	-7.57892
▁since	-7.57931
▁where	-7.58042
▁gift	-7.58114
▁son	-7.58169
▁doesn	-7.58654
▁foot	-7.5905
▁sure	-7.59058
▁days	-7.59097
▁hold	-7.5931
▁wallet	-7.59569
▁should	-7.6037
▁being	-7.60794
▁definitely	-7.61678
▁jacket	-7.63002
▁came	-7.63282
▁When	-7.63358
!!	-7.63449
▁give	-7.63474
▁months	-7.63645
▁actually	-7.63917
▁problem	-7.64672
▁always	-7.65015
▁tight	-7.6521
in	-7.65489
▁comfort	-7.66056
▁loves	-7.66665
▁excellent	-7.68453
▁those	-7.68472
▁going	-7.68492
▁wanted	-7.68798
▁light	-7.68899
▁under	-7.6899
▁take	-7.692
▁makes	-7.69904
▁several	-7.70773
▁store	-7.71896
▁room	-7.72002
▁Not	-7.72993
▁quite	-7.73213
▁getting	-7.73274
▁arrived	-7.73377
▁walking	-7.73438
&	-7.74373
able	-7.75114
▁There	-7.75349
▁buying	-7.75409
▁slippers	-7.76554
▁its	-7.7721
▁wide	-7.77447
▁fine	-7.78446
▁ones	-7.78565
▁far	-7.78669
▁perfectly	-7.78716
er	-7.79023
?	-7.79044
▁cotton	-7.79569
▁side	-7.80512
▁pairs	-7.80861
▁looked	-7.80934
▁seem	-7.81312
▁both	-7.81441
▁daughter	-7.81956
▁Also	-7.82137
▁anything	-7.82165
▁everything	-7.82846
▁4	-7.83124
▁pocket	-7.83327
▁usual	-7.83334
▁Christmas	-7.83488
▁running	-7.84191
▁exactly	-7.84904
▁skin	-7.8558
▁front	-7.85644
▁loved	-7.85698
▁things	-7.85703
a	-7.85739
▁highly	-7.85893
▁M	-7.86301
▁heel	-7.86646
▁extreme	-7.86973
▁low	-7.87081
▁our	-7.87689
▁quickly	-7.87762
▁smaller	-7.87766
▁try	-7.88198
▁sizes	-7.88423
▁brand	-7.89112
▁wore	-7.89914
▁company	-7.90508
▁return	-7.90621
▁fast	-7.91237
▁unable	-7.91252
▁won	-7.91399
▁5	-7.91615
▁In	-7.92604
▁yet	-7.92798
▁expected	-7.92811
▁weight	-7.92834
▁own	-7.93142
▁cheap	-7.93536
st	-7.93606
▁less	-7.93692
▁S	-7.94023
▁service	-7.94123
▁almost	-7.94277
▁people	-7.95751
▁inside	-7.95911
▁wish	-7.96593
▁brass	-7.96614
▁needed	-7.96886
▁larger	-7.97414
--	-7.97484
▁scandals	-7.97522
▁boot	-7.97648
▁part	-7.97985
▁easily	-7.98057
▁That	-7.98171
▁cool	-7.99145
▁sex	-7.9969
▁may	-7.99717
▁T	-8.00256
▁suit	-8.00359
▁However	-8.00438
▁pockets	-8.00662
▁underwear	-8.01261
▁sole	-8.01836
▁thin	-8.019
es	-8.02468
▁true	-8.02991
▁carry	-8.03463
▁place	-8.03548
▁stay	-8.04564
▁him	-8.04571
▁deal	-8.04662
▁beautiful	-8.05174
▁stylish	-8.05399
and	-8.05486
▁normal	-8.05997
▁straps	-8.06081
▁disappointed	-8.06237
▁three	-8.06291
▁said	-8.07101
ably	-8.07134
▁t	-8.0736
▁D	-8.07969
▁white	-8.08178
▁6	-8.09736
▁went	-8.09737
▁using	-8.10046
▁here	-8.10561
▁might	-8.10576
▁anyone	-8.10706
▁week	-8.11533
),	-8.12055
▁shirts	-8.12212
▁design	-8.13108
▁walk	-8.13706
▁For	-8.14267
▁8	-8.14643
▁After	-8.14806
▁hav	-8.14817
▁extra	-8.15141
▁cold	-8.15242
▁Good	-8.16069
▁seems	-8.16316
▁compliments	-8.1704
▁belt	-8.17123
▁THE	-8.17214
!!!	-8.17568
▁summer	-8.17967
▁absolutely	-8.17993
▁such	-8.18
▁Now	-8.18057
▁online	-8.18083
▁--	-8.18622
▁shape	-8.18867
▁prices	-8.1902
▁line	-8.19457
▁picture	-8.19801
▁review	-8.19806
▁wife	-8.19902
▁however	-8.19921
r	-8.20037
▁away	-8.20316
▁stretch	-8.20493
▁works	-8.21544
▁uncomfortable	-8.21912
▁times	-8.22092
▁ago	-8.22319
▁couple	-8.22849
▁bottom	-8.23013
▁wash	-8.23154
AND	-8.23343
▁full	-8.23443
▁regular	-8.23677
▁wrong	-8.23884
▁clothes	-8.23889
▁show	-8.24021
▁loose	-8.24149
▁On	-8.24195
▁briefs	-8.24413
▁waist	-8.2494
▁washing	-8.2528
▁wonderful	-8.25737
▁expensive	-8.25967
▁1	-8.26059
▁kind	-8.26081
▁once	-8.27271
▁wears	-8.27609
▁10	-8.28014
it	-8.28424
▁strap	-8.28727
▁super	-8.28738
▁prob	-8.29105
▁sent	-8.29216
▁owned	-8.29325
▁especially	-8.29416
▁fact	-8.30181
▁liked	-8.30289
▁baby	-8.31364
▁half	-8.31373
▁non	-8.31965
on	-8.32042
▁else	-8.32323
▁cost	-8.32482
▁took	-8.32762
▁stars	-8.32887
▁set	-8.33236
▁Thanks	-8.33238
▁bad	-8.33436
▁least	-8.33442
▁women	-8.33469
▁shipped	-8.33478
▁plastic	-8.335
▁outside	-8.33507
▁heavy	-8.33556
▁home	-8.33827
▁tell	-8.3403
▁dry	-8.34396
S	-8.34476
▁Thank	-8.34916
▁isn	-8.35389
▁cover	-8.35493
▁narrow	-8.35534
▁ordering	-8.35626
▁Well	-8.35795
▁Love	-8.35815
▁red	-8.36869
▁next	-8.36875
▁NOT	-8.3694
▁second	-8.37154
▁wouldn	-8.37159
▁end	-8.37648
▁pay	-8.37871
▁W	-8.37949
▁bigger	-8.38017
▁pull	-8.38167
▁feels	-8.38373
▁slip	-8.38469
▁stores	-8.38495
▁cards	-8.38536
▁items	-8.38598
▁band	-8.38828
▁each	-8.39273
▁must	-8.39275
▁medium	-8.39378
▁night	-8.3958
the	-8.40139
or	-8.40318
▁available	-8.40448
▁1/2	-8.40905
▁box	-8.41422
▁F	-8.4189
▁couldn	-8.42148
▁legs	-8.42216
▁E	-8.42288
▁C	-8.4257
▁already	-8.42821
▁myself	-8.42831
▁delivery	-8.42883
▁favorite	-8.43157
▁winter	-8.43168
▁stuff	-8.43953
▁nothing	-8.44209
▁body	-8.44596
▁type	-8.44647
▁thick	-8.45245
▁elastic	-8.4533
▁charge	-8.45615
▁One	-8.45697
▁open	-8.46218
▁men	-8.46235
▁until	-8.46653
▁water	-8.46987
▁hand	-8.47508
▁pack	-8.47849
▁nicely	-8.47864
▁etc	-8.4792
▁length	-8.47935
▁reason	-8.48777
▁clip	-8.4886
▁weeks	-8.49086
▁All	-8.49087
▁Vice	-8.49132
▁wedding	-8.4917
▁instead	-8.49175
▁why	-8.493
▁house	-8.49844
▁snug	-8.49896
▁decided	-8.50464
▁hours	-8.50752
▁problems	-8.51162
▁quick	-8.51751
▁hot	-8.52188
▁brown	-8.53175
▁longer	-8.53385
▁r	-8.54266
▁seizing	-8.54503
▁felt	-8.54508
▁weather	-8.54596
▁seller	-8.54994
▁O	-8.55559
▁let	-8.55616
▁enjoy	-8.55889
▁pouch	-8.56002
▁dur	-8.56194
not	-8.5627
▁person	-8.56639
▁start	-8.57195
▁says	-8.57349
▁lightweight	-8.57351
▁making	-8.57357
▁comes	-8.57363
▁started	-8.57468
▁fun	-8.57495
le	-8.57507
▁toe	-8.57563
▁trying	-8.57815
▁robe	-8.57863
▁customer	-8.57931
▁products	-8.58444
▁soon	-8.58563
▁reviews	-8.58574
▁casual	-8.58654
▁value	-8.58765
▁washed	-8.59005
▁7	-8.59221
▁month	-8.59426
▁recommended	-8.59725
▁tend	-8.59979
▁glad	-8.60044
▁saw	-8.60179
▁between	-8.60255
▁un	-8.60455
less	-8.60699
▁hat	-8.60797
▁fall	-8.60896
▁nipper	-8.61646
▁Overall	-8.61651
▁plus	-8.61833
▁dark	-8.62018
▁purse	-8.62276
▁package	-8.62326
▁silk	-8.62505
▁others	-8.62518
▁P	-8.62873
▁difficult	-8.63141
▁satisfied	-8.63145
▁Even	-8.63181
▁sturdy	-8.63183
▁completely	-8.63187
▁everyday	-8.63202
▁slightly	-8.6321
▁finally	-8.63214
▁mine	-8.63411
▁rain	-8.63566
▁Like	-8.63826
shirt	-8.64003
▁g	-8.64115
▁real	-8.6434
▁allow	-8.64418
▁believe	-8.64562
▁Would	-8.6477
▁arch	-8.64805
▁seen	-8.6519
▁recently	-8.66235
▁break	-8.66644
(	-8.66793
▁man	-8.66855
o	-8.67138
▁9	-8.67146
▁wasn	-8.67339
▁live	-8.67425
▁either	-8.67808
▁High	-8.67983
▁screen	-8.68001
▁blue	-8.68064
▁s	-8.68404
▁head	-8.68639
▁area	-8.68678
▁b	-8.68781
▁bands	-8.68796
..	-8.68929
▁awesome	-8.69349
▁send	-8.69451
▁100	-8.69479
▁sports	-8.69828
▁friend	-8.69918
i	-8.70356
▁working	-8.70794
▁parties	-8.70995
▁guess	-8.71028
▁surprised	-8.71028
▁paid	-8.71045
▁clothing	-8.71077
▁soles	-8.711
▁past	-8.7116
▁Its	-8.71242
▁job	-8.71648
▁choice	-8.72593
▁maybe	-8.72883
▁heels	-8.73022
▁school	-8.73581
▁expect	-8.73812
of	-8.73987
▁An	-8.74128
▁May	-8.74369
▁phone	-8.7442
▁us	-8.74739
▁notice	-8.75129
▁girl	-8.75259
▁LOVE	-8.75278
....	-8.75389
▁overall	-8.76196
▁keeps	-8.76391
▁leg	-8.76644
nty	-8.7689
▁point	-8.77028
▁told	-8.77483
▁velcro	-8.77677
▁credit	-8.77736
▁mind	-8.77768
▁VERY	-8.77775
▁help	-8.78309
▁car	-8.78487
▁upon	-8.78533
w	-8.78602
but	-8.79307
▁shopping	-8.79483
▁width	-8.79525
▁grm	-8.79548
▁returned	-8.79865
▁plan	-8.8024
▁haven	-8.8026
▁L	-8.80307
▁complaint	-8.80479
▁smooth	-8.81081
▁fan	-8.81348
▁fitting	-8.81721
▁hope	-8.81995
▁change	-8.82004
▁four	-8.8214
▁piece	-8.82295
▁pink	-8.83084
▁strong	-8.83126
▁called	-8.83195
▁across	-8.832
▁free	-8.83292
▁wet	-8.83599
est	-8.83687
al	-8.83711
▁today	-8.8378
▁skirt	-8.84009
▁With	-8.84131
ather	-8.84485
▁kept	-8.84896
▁business	-8.84938
▁beach	-8.84968
▁trip	-8.85706
▁thinking	-8.86458
▁wait	-8.86718
▁gets	-8.8672
▁clear	-8.87015
▁ple	-8.87096
▁card	-8.8806
▁experience	-8.88192
▁protect	-8.88446
▁class	-8.88663
▁similar	-8.88696
▁lining	-8.88727
▁New	-8.88731
▁boxers	-8.89326
▁sides	-8.89419
Y	-8.897
▁neck	-8.90063
▁tie	-8.90146
▁sock	-8.90379
▁fair	-8.90406
▁read	-8.90626
▁description	-8.9066
▁amazon	-8.90689
▁later	-8.90697
▁nursing	-8.90713
▁sale	-8.90855
▁needs	-8.91151
ave	-8.91628
▁model	-8.91763
▁flat	-8.91771
▁runs	-8.92276
▁th	-8.9237
▁close	-8.92374
▁prefer	-8.92656
▁impressed	-8.92663
▁simply	-8.92669
▁simple	-8.92684
▁flattering	-8.92736
▁whole	-8.92773
like	-8.92956
▁R	-8.93207
▁party	-8.93386
▁clot	-8.9375
▁gives	-8.93814
▁amazing	-8.94698
▁space	-8.9471
▁outfit	-8.94732
▁stiff	-8.94738
▁life	-8.94757
▁someone	-8.94832
▁Mu	-8.95061
▁worked	-8.95832
▁star	-8.95895
▁G	-8.96338
▁play	-8.964
▁amount	-8.96779
▁match	-8.96788
▁itself	-8.96861
▁idea	-8.96953
▁base	-8.96994
▁timely	-8.97206
▁present	-8.97606
▁bags	-8.97675
▁suggest	-8.97698
▁Is	-8.97733
ten	-8.98119
D	-8.98437
▁aren	-8.98589
as	-8.98909
▁advertised	-8.98919
▁stand	-8.98952
▁West	-8.98982
▁sometimes	-8.99023
com	-8.99331
▁often	-8.99867
▁travel	-9.0013
▁gown	-9.00196
▁tag	-9.00349
▁site	-9.00739
▁local	-9.00874
▁solid	-9.01082
▁immediately	-9.01094
▁clean	-9.01105
▁attractive	-9.01122
▁kiss	-9.01134
▁guy	-9.01148
▁supposed	-9.01186
▁12	-9.01406
▁add	-9.01563
▁condition	-9.01637
▁leave	-9.01791
▁designed	-9.01803
to	-9.02204
▁holds	-9.024
▁provide	-9.02772
▁beat	-9.0278
▁birthday	-9.03304
▁huge	-9.03333
▁taking	-9.03337
▁child	-9.03359
▁photo	-9.03419
▁particular	-9.03424
▁except	-9.03595
▁wider	-9.0365
due	-9.04315
ness	-9.04396
▁friends	-9.0451
▁waste	-9.04796
▁brief	-9.04882
▁pick	-9.05126
▁backpack	-9.05415
▁chest	-9.05539
▁difference	-9.05577
▁scarf	-9.05578
▁stays	-9.05589
x	-9.05614
▁tops	-9.05713
▁cause	-9.05773
▁helps	-9.06728
ught	-9.06906
ING	-9.0697
▁knee	-9.0725
▁coat	-9.07578
▁broke	-9.0777
▁Excellent	-9.07901
▁described	-9.07949
▁certain	-9.07954
▁inches	-9.07987
▁miles	-9.08002
▁ask	-9.082
▁speakers	-9.08538
ust	-9.09283
▁ankle	-9.09461
▁cup	-9.09595
▁likes	-9.09702
▁cell	-9.0974
!)	-9.10062
▁fantastic	-9.10282
▁together	-9.10289
▁above	-9.10317
▁suppurative	-9.10345
▁yourself	-9.10361
▁everyone	-9.10371
▁feeling	-9.1041
▁H	-9.10445
▁name	-9.10452
▁air	-9.10571
▁ga	-9.10575
is	-9.1065
▁although	-9.10669
▁average	-9.10781
▁given	-9.10935
they	-9.10963
tally	-9.10976
en	-9.11308
▁lace	-9.11345
▁check	-9.11402
▁call	-9.11523
▁matter	-9.11796
▁pain	-9.12028
▁sweat	-9.12028
▁toes	-9.1238
▁search	-9.12461
▁face	-9.12579
▁Larks	-9.12716
▁swede	-9.12716
▁version	-9.1272
▁Plus	-9.12721
▁stitching	-9.12734
▁anywhere	-9.12743
▁rubber	-9.12784
▁apart	-9.12893
▁YOU	-9.12903
▁cheaper	-9.12935
▁classic	-9.13337
▁means	-9.13402
▁slipper	-9.13891
▁seat	-9.14549
▁care	-9.14932
▁webster	-9.15218
▁boyfriend	-9.15222
▁woman	-9.15284
▁touch	-9.15374
▁reasonable	-9.1544
".	-9.1554
ARE	-9.15845
no	-9.1628
ting	-9.16292
T	-9.16453
▁stick	-9.1646
▁consider	-9.16587
▁cap	-9.1678
▁receive	-9.17477
▁poor	-9.17597
▁luggage	-9.17782
▁green	-9.17786
▁protection	-9.17792
▁purchasing	-9.17821
▁upper	-9.17831
▁mon	-9.17861
▁below	-9.17949
▁Men	-9.18025
▁THEY	-9.18088
▁compare	-9.18172
▁adding	-9.18183
▁become	-9.18356
▁20	-9.18504
▁exchange	-9.18521
▁tru	-9.18691
an	-9.18758
▁takes	-9.19081
▁girls	-9.19328
▁throw	-9.19331
▁player	-9.19551
▁c	-9.19577
▁fold	-9.19932
▁shoulder	-9.19954
▁exact	-9.2021
▁adorable	-9.20414
▁department	-9.20415
▁glasses	-9.20462
▁fell	-9.20587
▁asked	-9.20671
▁office	-9.20681
▁higher	-9.20731
▁buttons	-9.21262
▁shoulders	-9.21471
▁doing	-9.215
▁along	-9.21632
▁move	-9.21705
E	-9.21815
▁re	-9.21852
▁main	-9.21924
ity	-9.21966
▁w	-9.21996
▁hurt	-9.22878
▁lower	-9.23089
▁Perfect	-9.23115
▁Although	-9.23116
▁pantyhose	-9.23116
▁anyway	-9.23156
▁FOR	-9.23205
▁hair	-9.23215
▁thicker	-9.23219
▁Was	-9.23239
▁p	-9.23318
▁refund	-9.23331
▁15	-9.23434
▁hate	-9.23441
▁minutes	-9.23469
▁coming	-9.23626
▁inch	-9.23845
em	-9.24514
▁feature	-9.25075
▁arm	-9.25684
▁original	-9.2569
▁option	-9.25874
▁GREAT	-9.2589
▁lawton	-9.25891
▁jersey	-9.25891
▁THIS	-9.25964
▁Other	-9.25991
what	-9.26152
▁gloves	-9.26453
nearly	-9.26541
▁ride	-9.2685
▁tone	-9.27207
▁shop	-9.27597
▁shows	-9.28311
▁lip	-9.28349
which	-9.28367
made	-9.28372
▁shrink	-9.28442
▁stock	-9.28613
▁number	-9.28751
▁anymore	-9.28809
▁construction	-9.28827
▁bulky	-9.28853
▁height	-9.28859
▁lookout	-9.28982
▁cross	-9.29079
▁mail	-9.29079
ous	-9.29129
▁expecting	-9.29221
▁sized	-9.29301
▁Order	-9.29371
▁goes	-9.29436
▁continue	-9.29457
rew	-9.29476
▁placed	-9.29487
ish	-9.29569
▁forever	-9.29641
▁holes	-9.29696
▁fashion	-9.30015
2	-9.30353
▁smell	-9.30509
at	-9.30658
ce	-9.30737
▁swim	-9.30861
▁key	-9.31076
▁button	-9.31162
▁course	-9.31689
▁easier	-9.31691
▁decent	-9.31692
▁replacement	-9.31694
▁WAS	-9.31766
▁Comfortable	-9.31781
▁dig	-9.31815
▁padded	-9.3186
▁gold	-9.31863
▁Line	-9.31895
▁boxer	-9.32028
▁ball	-9.32286
▁ended	-9.32485
▁general	-9.32555
▁keys	-9.32626
▁appear	-9.32811
▁tall	-9.32826
▁luck	-9.33177
▁kne	-9.33364
▁scandal	-9.33908
▁issue	-9.3393
ble	-9.34286
▁waterproof	-9.34411
▁imagine	-9.34509
▁previous	-9.3451
▁machine	-9.34719
▁sunglasses	-9.34721
▁pleasant	-9.34789
▁rest	-9.34793
▁twice	-9.34795
▁chart	-9.34798
▁future	-9.34799
▁gorgeous	-9.34799
▁turn	-9.34833
▁left	-9.34835
▁wishes	-9.34949
▁dollars	-9.35011
▁shown	-9.35123
▁figure	-9.35438
▁seams	-9.35485
▁Have	-9.35816
h	-9.36136
▁bed	-9.36392
▁giv	-9.36531
▁sister	-9.36866
▁tank	-9.36867
▁spend	-9.37588
▁lose	-9.3766
▁trouble	-9.37843
▁athletic	-9.37844
▁remember	-9.37845
▁slack	-9.37854
▁delivered	-9.37869
▁materials	-9.37893
▁Cross	-9.37921
▁properly	-9.37934
▁mean	-9.37967
▁promptly	-9.37988
▁Old	-9.3799
▁Met	-9.38278
even	-9.38921
▁provides	-9.39088
▁sleep	-9.39457
▁done	-9.39998
▁chance	-9.40008
▁sleeve	-9.40194
▁ok	-9.40434
▁near	-9.40594
th	-9.40797
he	-9.40811
LY	-9.40854
▁boy	-9.40903
▁handle	-9.40913
▁secure	-9.4099
ockey	-9.41048
▁Since	-9.41067
▁excited	-9.41068
▁bargain	-9.41083
▁Balance	-9.41151
▁grandson	-9.41154
C	-9.41373
▁five	-9.41411
▁opened	-9.41504
▁bright	-9.41575
▁breaking	-9.41813
▁dresses	-9.41818
L	-9.42266
ther	-9.42547
▁:	-9.42591
▁saying	-9.4319
▁snow	-9.43219
▁waistband	-9.43337
▁season	-9.43559
ies	-9.43563
▁offer	-9.43644
▁correct	-9.43966
▁lines	-9.4422
▁replace	-9.44222
▁dance	-9.44323
▁hole	-9.44348
▁dwyer	-9.44399
▁worry	-9.44423
▁THEM	-9.44427
▁hiding	-9.44428
▁slide	-9.44454
▁guns	-9.44472
▁lighter	-9.44669
▁comfortably	-9.44761
l	-9.4478
M	-9.4478
▁Buy	-9.4493
▁rough	-9.45069
▁returning	-9.4566
▁rise	-9.45729
▁de	-9.46045
▁special	-9.46405
▁agree	-9.46844
▁hel	-9.47085
▁sport	-9.47095
▁costume	-9.47099
up	-9.47182
▁important	-9.4775
▁please	-9.47751
▁18	-9.47793
▁daily	-9.47849
▁versatile	-9.47849
▁flies	-9.47862
▁thrilled	-9.47873
▁everywhere	-9.47873
▁middle	-9.47936
▁camera	-9.47953
▁possible	-9.48028
▁blisters	-9.48087
▁control	-9.48111
▁sold	-9.48135
▁Whi	-9.48157
▁lost	-9.48167
▁Some	-9.4823
▁reviewed	-9.48488
▁Any	-9.48795
▁sleeves	-9.48979
▁carrying	-9.48997
▁De	-9.50074
▁rights	-9.5013
▁spring	-9.50353
▁sweatshirt	-9.50622
▁d	-9.50627
▁books	-9.50962
▁34	-9.51189
▁remove	-9.51386
▁convenient	-9.5142
▁manner	-9.51423
▁metal	-9.51444
▁Really	-9.51464
▁choose	-9.51471
▁Adidas	-9.5151
▁closure	-9.51569
▁places	-9.51594
▁elegant	-9.51606
▁calf	-9.51798
▁typical	-9.51816
▁changed	-9.51819
▁considering	-9.51877
▁Shoes	-9.52081
▁lined	-9.52368
▁cloth	-9.52391
▁offers	-9.52484
▁faces	-9.52711
▁cups	-9.52717
▁lovely	-9.52736
▁u	-9.52845
ation	-9.52928
▁pre	-9.53157
.)	-9.53373
▁snap	-9.54081
▁relative	-9.54098
▁wind	-9.54111
▁garment	-9.54179
g	-9.54529
▁hour	-9.5474
▁safe	-9.54872
▁opinion	-9.55122
▁email	-9.55122
▁vacation	-9.55122
▁worried	-9.55123
▁professional	-9.55124
▁girlfriend	-9.55125
▁underneath	-9.55126
▁38	-9.55134
▁happened	-9.55201
▁adjustable	-9.55203
▁fleecy	-9.55215
▁Will	-9.55252
▁Sick	-9.55325
▁slim	-9.55377
▁Had	-9.5538
▁mistake	-9.55413
▁bucks	-9.55444
▁suits	-9.55607
▁range	-9.55633
▁broken	-9.55637
▁sh	-9.55812
The	-9.55923
▁stretched	-9.55935
▁showing	-9.56092
▁arms	-9.56124
▁ankles	-9.56643
▁30	-9.57276
ld	-9.57597
▁hands	-9.57623
▁hook	-9.57907
▁remain	-9.57923
▁standard	-9.58378
!!!!	-9.58381
▁buckle	-9.58393
It	-9.58482
▁actual	-9.58766
▁surprise	-9.58794
▁heat	-9.58799
ready	-9.58837
▁access	-9.58838
▁13	-9.58936
▁navy	-9.58962
▁terrific	-9.58967
▁umbrella	-9.58968
▁discomfort	-9.58969
▁Unfortunately	-9.58969
▁Finally	-9.58972
▁useful	-9.59016
▁market	-9.59038
▁late	-9.59123
▁stated	-9.59134
▁outdoor	-9.59175
▁14	-9.59252
▁silver	-9.5927
▁breathe	-9.59383
▁Large	-9.59709
▁pads	-9.59734
▁Look	-9.59752
▁11	-9.59859
▁compar	-9.59876
▁taken	-9.59886
▁lift	-9.60417
▁hit	-9.60958
ion	-9.61052
se	-9.61193
▁U	-9.61197
B	-9.61288
▁addition	-9.61336
▁morning	-9.62023
▁exercise	-9.6204
▁speaker	-9.62105
▁log	-9.62223
▁adjust	-9.62523
efinitely	-9.62537
▁entire	-9.62732
▁regret	-9.6295
▁zip	-9.6295
▁tennis	-9.62954
▁Most	-9.62965
▁vendor	-9.62965
▁family	-9.62966
▁negative	-9.62967
▁Otherwise	-9.62968
▁disability	-9.62969
▁variety	-9.62977
▁suitcase	-9.62978
▁slipping	-9.62978
▁kid	-9.63036
▁HAVE	-9.63053
▁Super	-9.63065
▁BUT	-9.63071
▁deep	-9.63076
▁fanny	-9.6308
▁dirty	-9.63129
▁First	-9.63181
▁flexible	-9.63184
▁firm	-9.63222
▁unlike	-9.63328
▁constructed	-9.63405
▁reading	-9.63495
▁resistant	-9.63625
▁handy	-9.63707
▁covered	-9.63764
▁packing	-9.63958
be	-9.63986
▁50	-9.64201
▁hang	-9.64473
▁fully	-9.64551
▁stop	-9.65038
f	-9.65073
c	-9.65152
▁note	-9.6592
▁floor	-9.66227
▁compartment	-9.66245
▁pattern	-9.6627
▁mother	-9.66274
▁wheel	-9.66373
line	-9.66402
▁holder	-9.66564
▁co	-9.66872
▁careful	-9.66909
▁Last	-9.66928
▁practical	-9.6693
▁realize	-9.67003
▁thank	-9.67042
▁afraid	-9.67116
▁fabulous	-9.67116
▁internet	-9.67118
▁grip	-9.67118
▁system	-9.67119
▁Everyone	-9.67122
▁Still	-9.67125
▁require	-9.67132
▁label	-9.67208
▁barely	-9.6723
▁swimming	-9.67239
▁undermine	-9.6725
▁basically	-9.67364
▁gone	-9.67464
▁sheer	-9.67967
▁ear	-9.68027
▁Ste	-9.68403
."	-9.6847
▁none	-9.68761
▁date	-9.68948
▁form	-9.69092
▁complaints	-9.69218
▁slight	-9.69571
ED	-9.69696
▁outer	-9.69727
▁arrive	-9.69998
ers	-9.70121
p	-9.70144
▁ran	-9.70575
▁glove	-9.70621
▁flap	-9.70785
ar	-9.70818
ite	-9.70967
5	-9.71005
▁sort	-9.71166
▁prompt	-9.71262
▁rate	-9.71404
▁activities	-9.71464
▁WILL	-9.71465
▁prevent	-9.71466
▁armband	-9.71466
▁built	-9.71467
▁copy	-9.71478
▁Speed	-9.71482
▁du	-9.71549
▁WITH	-9.71583
▁16	-9.71591
▁watching	-9.71695
▁offered	-9.7172
▁tiny	-9.71744
wear	-9.71745
▁mesh	-9.71749
▁grow	-9.71807
▁liking	-9.71814
▁contract	-9.71872
▁fashioning	-9.71877
▁searching	-9.7195
▁provided	-9.71981
▁Oh	-9.72045
▁double	-9.72048
▁40	-9.72262
inner	-9.72301
▁forget	-9.72373
▁yes	-9.72733
▁round	-9.7283
ought	-9.72868
turned	-9.72909
added	-9.7298
you	-9.73013
▁cases	-9.73074
▁f	-9.73265
▁exceptional	-9.73355
▁m	-9.73486
▁putt	-9.74207
▁includ	-9.74518
▁covers	-9.74842
▁period	-9.75104
out	-9.75109
▁comment	-9.75146
▁paper	-9.7522
▁pool	-9.75607
▁pictures	-9.75664
They	-9.75706
▁appreciate	-9.75841
▁accurate	-9.75901
▁college	-9.7601
▁computer	-9.7601
▁functional	-9.76015
▁incredibly	-9.76015
▁penny	-9.76016
▁Shipping	-9.76018
▁shipment	-9.76023
▁sitting	-9.76038
▁traction	-9.76057
▁tired	-9.76091
▁world	-9.76113
▁team	-9.76118
▁doubt	-9.76159
▁list	-9.76159
▁sewn	-9.76178
▁whatever	-9.76186
▁purpose	-9.76468
ily	-9.76486
▁Red	-9.76539
▁belly	-9.76562
▁waiting	-9.76587
▁standing	-9.76641
▁trunks	-9.76657
▁snugly	-9.76727
▁falling	-9.76791
▁pictured	-9.76865
one	-9.76942
▁hooks	-9.77075
▁Take	-9.77383
▁trim	-9.7779
so	-9.78315
▁personal	-9.78344
all	-9.7891
▁North	-9.7897
lots	-9.7925
▁rub	-9.79671
N	-9.79938
▁Shoe	-9.79941
▁N	-9.80258
old	-9.8032
shirts	-9.80349
for	-9.80385
▁speed	-9.80534
▁fade	-9.80719
▁christmas	-9.80772
▁crotchless	-9.80772
▁pregnant	-9.80772
▁six	-9.80775
▁understand	-9.8078
▁THESE	-9.80782
▁otherwise	-9.80783
▁funny	-9.80791
▁alone	-9.80798
▁selection	-9.80808
▁Took	-9.80877
▁lingered	-9.80902
▁unfordable	-9.80904
▁attached	-9.8091
▁coverage	-9.80917
▁minor	-9.80919
▁spent	-9.80927
▁ahead	-9.80973
▁obviously	-9.80978
▁'	-9.80994
▁meant	-9.8103
▁sun	-9.81088
▁originally	-9.81127
▁wool	-9.81173
▁Pan	-9.81182
▁playing	-9.81351
▁town	-9.81472
▁fitted	-9.81593
▁tough	-9.816
▁hips	-9.81615
▁breasts	-9.81616
▁measure	-9.81628
▁watch	-9.8167
▁father	-9.81853
▁paying	-9.81861
▁thanks	-9.81991
k	-9.82146
▁fix	-9.8229
▁outfits	-9.82958
▁st	-9.83012
ir	-9.83022
ecause	-9.83141
▁uses	-9.83295
▁skirts	-9.83364
ist	-9.83437
red	-9.83448
▁fur	-9.83586
▁states	-9.83601
▁book	-9.83797
▁ears	-9.83855
ry	-9.84253
▁Give	-9.84468
▁wonder	-9.8461
▁Birkenstock	-9.84881
▁manufacturer	-9.84888
▁layer	-9.84988
▁breast	-9.84993
just	-9.85184
▁ship	-9.8526
size	-9.85351
u	-9.85602
▁l	-9.85699
▁sell	-9.85711
▁effect	-9.85768
▁panama	-9.85772
▁bathroom	-9.85772
▁straight	-9.85774
▁compact	-9.85774
▁7.5	-9.8578
▁helpful	-9.85781
▁stopped	-9.85784
▁elsewhere	-9.85785
▁chose	-9.85786
▁hoping	-9.85796
▁bill	-9.85807
▁hip	-9.8582
▁dis	-9.8582
▁male	-9.8584
▁response	-9.85845
▁Product	-9.85906
▁tuck	-9.85909
▁function	-9.85912
▁shower	-9.85917
▁protector	-9.85943
▁shots	-9.85989
▁shippers	-9.86019
▁practically	-9.86019
▁bike	-9.8606
▁From	-9.86081
▁forward	-9.86195
▁Who	-9.86216
▁hoped	-9.8628
▁bunch	-9.86282
▁self	-9.86316
▁figured	-9.86335
▁age	-9.86385
man	-9.86456
Such	-9.86527
▁depend	-9.86584
▁Birkenstocks	-9.8667
▁ease	-9.86706
▁hood	-9.8699
▁sit	-9.87194
na	-9.87542
▁multip	-9.87944
▁sick	-9.8809
▁nicer	-9.88305
▁wrap	-9.88962
▁e	-9.89118
▁clips	-9.89227
▁Th	-9.89231
tten	-9.89372
great	-9.90019
▁result	-9.90118
▁separate	-9.90654
▁accommodat	-9.91035
▁companies	-9.91035
▁behind	-9.91035
▁video	-9.91035
▁storage	-9.91036
uality	-9.9104
▁instructions	-9.91042
▁square	-9.91043
▁brother	-9.91048
▁adapted	-9.91049
▁protective	-9.91052
▁surprisingly	-9.91063
▁pad	-9.91082
▁Long	-9.91083
▁information	-9.91117
▁silicone	-9.91139
▁gear	-9.91147
▁concerned	-9.91155
▁current	-9.91197
▁Please	-9.91223
▁press	-9.91225
▁bonus	-9.91318
▁feminine	-9.91322
▁mid	-9.91434
▁slippered	-9.91437
▁count	-9.91518
00	-9.91521
▁:)	-9.91596
▁K	-9.91646
ny	-9.9172
▁compartments	-9.92176
▁beautifully	-9.92347
me	-9.92378
us	-9.92506
▁closet	-9.93076
▁test	-9.93304
▁trips	-9.93571
law	-9.93672
▁clots	-9.93763
▁web	-9.93875
ER	-9.9398
▁36	-9.94329
▁gifts	-9.94455
▁charges	-9.94708
▁vari	-9.949
▁Un	-9.95229
▁Back	-9.95256
▁V	-9.95273
▁roll	-9.95314
came	-9.95321
▁bottle	-9.95502
▁cushion	-9.95511
▁collar	-9.95561
▁wrinkle	-9.95623
▁surface	-9.95693
▁tear	-9.95929
ever	-9.96019
body	-9.96039
▁dirt	-9.96352
▁mention	-9.96415
A	-9.96511
▁tax	-9.96539
▁synthesis	-9.9659
▁single	-9.96593
▁click	-9.96625
▁dinner	-9.96626
▁carried	-9.96648
▁missing	-9.96654
▁avoid	-9.96663
▁discovered	-9.96669
▁annoying	-9.96708
▁mold	-9.96714
▁basic	-9.96719
▁heard	-9.96732
▁candles	-9.96735
▁necessary	-9.96737
▁popular	-9.96739
▁Never	-9.96744
▁sweeter	-9.96753
▁Why	-9.96775
▁haste	-9.96914
▁training	-9.96995
▁bust	-9.97135
▁harder	-9.97156
▁traveling	-9.97293
▁games	-9.97431
▁push	-9.97457
very	-9.98205
▁pass	-9.98213
looking	-9.98717
▁tags	-9.98777
▁Are	-9.98951
was	-9.99062
▁known	-9.9913
▁br	-9.99166
book	-9.99605
▁nor	-9.99805
▁post	-9.99898
▁Am	-10.0008
▁Under	-10.0032
▁ties	-10.0035
▁h	-10.0056
side	-10.0078
▁movement	-10.0146
▁kick	-10.0149
▁Rockport	-10.0156
▁pump	-10.0156
▁ten	-10.0157
▁detail	-10.0159
▁colour	-10.0162
▁pa	-10.0192
▁game	-10.0194
O	-10.0199
▁scratch	-10.0234
▁retail	-10.0243
▁position	-10.0247
▁reliable	-10.0247
▁scarves	-10.0247
▁Easy	-10.0247
▁bracelets	-10.0247
▁shiny	-10.0248
▁drawback	-10.0248
▁collection	-10.0248
▁painful	-10.0248
▁naso	-10.0248
▁Hands	-10.0248
▁polish	-10.0248
▁heavier	-10.0248
▁admit	-10.0249
▁ballet	-10.025
▁Delivery	-10.0251
▁Dear	-10.0255
▁Soft	-10.0261
▁major	-10.0261
▁Medium	-10.0262
▁perhaps	-10.0262
▁ladies	-10.0262
▁yesterday	-10.0262
▁breathable	-10.0264
▁rating	-10.0266
▁Does	-10.0266
▁everytime	-10.027
▁reach	-10.0274
▁riding	-10.0279
▁Right	-10.028
▁dozen	-10.028
▁warmth	-10.0282
▁zen	-10.0284
▁per	-10.0299
▁Black	-10.0299
▁sleeping	-10.03
▁trust	-10.0304
▁eyes	-10.0328
▁Works	-10.0338
▁wonderfully	-10.0368
▁pro	-10.0371
▁unit	-10.0382
▁onto	-10.0384
▁con	-10.0395
▁features	-10.0441
W	-10.0448
over	-10.0459
▁sound	-10.0509
▁hi	-10.0548
▁tape	-10.0629
▁total	-10.0639
▁types	-10.0695
8	-10.0736
▁Tru	-10.0769
▁scale	-10.0777
ck	-10.0783
ts	-10.0788
▁Side	-10.079
day	-10.0806
▁attach	-10.081
▁weigh	-10.082
my	-10.0824
4	-10.084
▁complete	-10.0855
▁natural	-10.0867
▁positive	-10.0872
▁transaction	-10.0872
▁Christian	-10.0872
▁alternative	-10.0872
▁movie	-10.0872
▁texture	-10.0872
▁loafer	-10.0872
▁merchant	-10.0872
▁Sadden	-10.0872
▁sandbag	-10.0872
▁expectations	-10.0872
▁calves	-10.0872
▁stuck	-10.0873
▁happier	-10.0873
▁gripped	-10.0873
▁beyond	-10.0874
▁practice	-10.0875
▁slipped	-10.0876
▁cash	-10.0876
▁weekend	-10.0877
▁via	-10.0877
▁spare	-10.0878
▁sliding	-10.0881
▁staples	-10.0882
▁eventually	-10.0882
▁worst	-10.0883
▁petite	-10.0888
▁noticeable	-10.0888
▁workmanship	-10.0888
▁sheepskin	-10.0888
▁prior	-10.0889
▁shake	-10.0889
▁Site	-10.0894
▁desp	-10.0896
▁American	-10.0896
▁split	-10.0897
▁stockings	-10.09
▁required	-10.09
▁included	-10.0905
▁satin	-10.0905
▁polyester	-10.0906
▁poorly	-10.0922
▁BUY	-10.0923
▁thighs	-10.0926
▁sling	-10.0929
▁cling	-10.0934
▁marks	-10.0939
▁baggy	-10.0943
▁spending	-10.0944
▁SI	-10.0945
▁eye	-10.0952
▁ground	-10.0958
▁o	-10.0959
▁older	-10.0964
▁Size	-10.0964
0	-10.0971
▁locks	-10.0973
▁shell	-10.0977
▁remov	-10.0988
▁bring	-10.0992
▁comments	-10.0995
el	-10.1018
▁early	-10.104
▁Though	-10.1063
▁CAN	-10.1063
▁60	-10.1083
▁comb	-10.1085
.....	-10.109
that	-10.1103
▁les	-10.1119
Of	-10.1175
weight	-10.1193
large	-10.1209
▁squeeze	-10.1332
▁lasting	-10.1378
ice	-10.1418
▁kinds	-10.1424
▁lunch	-10.1439
▁combination	-10.1444
▁device	-10.1447
▁minute	-10.145
▁essential	-10.1454
▁lock	-10.1463
▁board	-10.1496
PS	-10.1497
▁step	-10.1499
▁bulk	-10.1514
▁finish	-10.1522
▁proper	-10.1523
ch	-10.1533
▁jack	-10.1538
▁craftsmanship	-10.1539
▁merchandise	-10.1539
▁process	-10.1539
▁wardrobe	-10.1539
▁unique	-10.1539
▁security	-10.1539
▁cashier	-10.1539
▁swimmer	-10.1539
▁Era	-10.1541
▁overnight	-10.1541
▁iron	-10.1542
▁switch	-10.1543
▁shock	-10.1543
▁third	-10.1546
▁extended	-10.1548
▁saved	-10.1549
▁steal	-10.1551
▁level	-10.1555
▁THAT	-10.1555
▁discount	-10.1555
▁Price	-10.1555
▁initially	-10.1555
▁wedge	-10.1555
▁earlier	-10.1555
▁Anyway	-10.1556
▁Yes	-10.156
▁Our	-10.1562
▁arches	-10.1563
▁ugly	-10.1563
▁power	-10.157
▁pounds	-10.1572
▁$20	-10.1572
▁personally	-10.1573
▁visit	-10.1574
▁children	-10.1575
▁stable	-10.1575
▁designer	-10.1576
▁rear	-10.1576
▁replaced	-10.1576
▁EVER	-10.1603
▁share	-10.1605
▁bother	-10.1613
▁edges	-10.1613
▁ALL	-10.1631
▁write	-10.1634
▁manage	-10.1676
▁slit	-10.1722
▁32	-10.1728
▁areas	-10.1729
we	-10.1738
ted	-10.1813
▁patch	-10.1821
nce	-10.1842
▁Receive	-10.1843
▁BE	-10.1872
thing	-10.1893
▁pieces	-10.1895
▁hats	-10.1895
▁mall	-10.1904
P	-10.1905
cut	-10.1908
ball	-10.1991
▁sons	-10.2006
▁en	-10.2051
rise	-10.2057
et	-10.211
▁rock	-10.2113
3	-10.2125
▁$10	-10.2135
▁street	-10.2152
▁bottoms	-10.2155
▁hasn	-10.2155
▁moment	-10.2158
▁drop	-10.2161
▁loop	-10.2173
▁finger	-10.2175
▁appearance	-10.2178
ter	-10.2179
▁belts	-10.2186
▁page	-10.2187
▁plug	-10.2231
▁serious	-10.2232
▁recent	-10.2234
▁ruin	-10.2248
▁WEAR	-10.2251
▁Balcony	-10.2253
▁ASICS	-10.2253
▁People	-10.2253
▁develop	-10.2253
▁insects	-10.2253
▁skeptically	-10.2253
▁themselves	-10.2253
▁contact	-10.2253
▁Clark	-10.2253
▁hobby	-10.2254
▁Armour	-10.2254
▁incredible	-10.2254
▁lady	-10.2255
▁swimsuit	-10.2255
▁terrible	-10.2257
▁Upon	-10.2257
▁Tigers	-10.2257
▁football	-10.2258
▁promised	-10.226
▁scratches	-10.226
ility	-10.2261
▁tread	-10.2263
▁requested	-10.2263
▁fashionable	-10.2263
▁occasionally	-10.2266
▁walks	-10.2266
▁public	-10.227
▁HOT	-10.227
▁purple	-10.227
▁handling	-10.2272
▁stitched	-10.2273
▁Hope	-10.2273
▁directly	-10.2274
▁moving	-10.2278
▁fill	-10.2279
▁according	-10.228
▁beware	-10.2281
▁neat	-10.2282
F	-10.2283
▁USA	-10.229
▁Fool	-10.2291
▁appropriate	-10.2291
▁custom	-10.2293
▁listed	-10.2294
▁pitch	-10.2306
▁More	-10.2307
▁removed	-10.2308
▁temperatures	-10.2317
▁locally	-10.2323
▁hanging	-10.2323
▁occasions	-10.2326
▁aides	-10.2329
▁helped	-10.233
▁happens	-10.2332
▁country	-10.2334
▁closed	-10.2345
▁evening	-10.2347
▁sore	-10.2354
▁surfaces	-10.2371
▁visible	-10.2414
▁ra	-10.2452
▁shouldn	-10.2459
▁boys	-10.247
▁fat	-10.2487
▁produce	-10.2496
---	-10.25
▁...	-10.2505
▁$	-10.2574
this	-10.2591
LOVES	-10.2593
▁talk	-10.2597
▁Pa	-10.2611
ver	-10.2664
▁reasonabl	-10.2678
▁multi	-10.2693
ERE	-10.2705
▁robes	-10.2719
ious	-10.2791
▁favorites	-10.2795
▁serve	-10.2804
▁sets	-10.2815
▁costs	-10.2833
▁Be	-10.2881
▁Or	-10.29
▁draw	-10.2901
▁camisole	-10.2943
▁receiv	-10.2974
▁crack	-10.2976
▁trunk	-10.2994
▁substantial	-10.2996
▁pinch	-10.3003
▁mix	-10.3004
▁concern	-10.3005
▁thigh	-10.3009
▁odd	-10.3019
▁ex	-10.302
▁PERFECT	-10.3022
▁soccer	-10.3022
▁impossible	-10.3022
▁treadmill	-10.3022
▁yellow	-10.3022
▁advice	-10.3022
▁sharp	-10.3022
▁scrub	-10.3023
▁envelope	-10.3023
▁music	-10.3023
▁display	-10.3023
▁fresh	-10.3023
▁granddaughter	-10.3023
▁NEVER	-10.3023
▁military	-10.3023
▁airport	-10.3023
▁neither	-10.3023
▁driving	-10.3023
▁wrote	-10.3023
▁policy	-10.3023
▁Trade	-10.3023
▁exercising	-10.3023
▁shrinkage	-10.3023
▁Gros	-10.3024
▁delighted	-10.3027
▁discontinued	-10.303
▁bowing	-10.3033
▁lipping	-10.3033
▁magnet	-10.3034
▁runner	-10.3037
▁denis	-10.3039
▁dream	-10.3041
▁sundry	-10.3041
▁Years	-10.3041
▁stability	-10.3041
▁throughout	-10.3042
▁word	-10.3042
id	-10.3042
▁bounce	-10.3042
▁China	-10.3043
▁coin	-10.3046
▁awful	-10.3048
▁active	-10.3058
▁realized	-10.3061
▁pregnancy	-10.3063
▁speedy	-10.3065
▁dried	-10.3066
▁selling	-10.3069
▁importantly	-10.3069
▁hooked	-10.3074
▁faster	-10.3075
▁80	-10.3076
▁headphones	-10.3099
▁picked	-10.3103
▁tighter	-10.3109
▁aware	-10.3111
▁chin	-10.312
▁equal	-10.3122
▁details	-10.3141
▁rich	-10.3163
▁pointed	-10.3168
gan	-10.3169
▁tighten	-10.3173
▁pen	-10.3174
▁awhile	-10.3183
▁walked	-10.3185
▁wrapp	-10.3189
▁sad	-10.3192
▁toast	-10.3195
▁packed	-10.3199
▁buckles	-10.3208
▁wick	-10.3232
king	-10.3241
ital	-10.3264
ful	-10.3272
▁flaps	-10.3292
▁mat	-10.3295
▁fly	-10.3331
▁knees	-10.3339
▁hear	-10.3373
▁Work	-10.3376
▁mark	-10.3387
LE	-10.3421
▁specific	-10.3429
▁points	-10.3431
UST	-10.3432
G	-10.3448
▁Ve	-10.3448
▁track	-10.3467
▁que	-10.348
▁Lo	-10.3483
ate	-10.3484
through	-10.3506
▁customers	-10.353
H	-10.3531
ment	-10.354
retty	-10.3544
▁25	-10.3549
▁follow	-10.356
▁begin	-10.3564
especially	-10.3569
1	-10.3582
▁caus	-10.36
▁po	-10.3621
DD	-10.3645
▁packs	-10.3658
other	-10.3664
▁v	-10.3689
these	-10.369
ent	-10.3697
if	-10.3704
▁soak	-10.372
MA	-10.3731
▁happen	-10.3747
▁downside	-10.3756
▁claim	-10.3761
▁stain	-10.377
ated	-10.3774
▁view	-10.3784
▁shade	-10.3787
▁6.5	-10.3788
▁Y	-10.3797
hile	-10.3801
▁gap	-10.3815
▁build	-10.3826
▁print	-10.3831
▁initial	-10.3835
▁suppose	-10.3837
▁describe	-10.3838
▁Her	-10.3847
▁Europe	-10.3849
▁Awesome	-10.3856
▁cleavage	-10.3856
▁identical	-10.3856
▁minimize	-10.3856
▁sensitive	-10.3856
▁attention	-10.3856
▁cooper	-10.3856
▁smart	-10.3856
▁COMFORTABLE	-10.3856
▁amazed	-10.3856
▁workouts	-10.3856
▁ORDERED	-10.3856
▁pressure	-10.3856
▁Women	-10.3856
▁measurement	-10.3856
▁Baby	-10.3857
▁COLOR	-10.3857
▁Besides	-10.3858
▁window	-10.3858
▁flash	-10.3859
▁Over	-10.3859
rizon	-10.3859
▁writing	-10.3859
▁caught	-10.386
▁Sons	-10.386
▁explain	-10.386
▁folks	-10.386
▁complements	-10.3861
▁busy	-10.3863
▁intended	-10.3864
▁Beds	-10.3865
▁Were	-10.3866
▁sense	-10.3866
▁airline	-10.3867
▁stripes	-10.387
▁constantly	-10.3871
▁God	-10.3871
▁daytime	-10.3873
▁disappointing	-10.3873
▁2006	-10.3875
▁series	-10.3875
▁digging	-10.3875
▁battery	-10.3877
▁unfortunately	-10.3878
▁impact	-10.3879
▁classes	-10.3881
▁merry	-10.3883
▁apply	-10.3883
▁sooner	-10.3884
▁trees	-10.3893
▁profile	-10.3899
▁delicate	-10.3899
▁recommendation	-10.3902
▁mentioned	-10.3902
▁thickness	-10.3907
▁LOT	-10.3908
▁locked	-10.3915
▁string	-10.3925
▁words	-10.3933
▁goodness	-10.3936
sh	-10.3945
▁sticky	-10.3946
▁strange	-10.3952
▁pages	-10.3959
▁/	-10.3975
▁al	-10.3982
▁involve	-10.3985
▁:-	-10.3991
▁softer	-10.4008
back	-10.4022
▁forgot	-10.4025
▁formal	-10.404
▁fr	-10.4089
▁daughters	-10.411
▁issues	-10.4113
▁smells	-10.412
▁hide	-10.4125
▁leav	-10.4151
b	-10.4157
▁goods	-10.4198
▁conditions	-10.4209
ized	-10.422
▁Too	-10.4252
▁flats	-10.4257
ally	-10.4311
eep	-10.4333
▁heads	-10.434
um	-10.4345
▁Every	-10.4348
around	-10.4348
toe	-10.4356
uring	-10.4357
EN	-10.4383
▁reasons	-10.444
year	-10.4449
▁aside	-10.4462
nd	-10.4484
▁Hav	-10.4488
▁ware	-10.449
tually	-10.4519
ill	-10.4529
ance	-10.4546
set	-10.4568
▁slips	-10.4618
our	-10.4636
son	-10.4645
▁blanket	-10.4653
▁adult	-10.4653
▁cuts	-10.4656
▁occasion	-10.4669
▁headphone	-10.4675
▁dollar	-10.4676
▁sales	-10.4704
▁toller	-10.4721
▁PRICE	-10.4735
▁twist	-10.4746
▁final	-10.4748
▁kit	-10.475
▁crutch	-10.4758
▁frame	-10.476
▁HIGH	-10.4765
▁ultra	-10.4765
▁Skechers	-10.4765
▁WHAT	-10.4765
▁accessories	-10.4765
▁hospital	-10.4765
▁oxford	-10.4765
▁unbearable	-10.4765
▁vagrant	-10.4765
▁account	-10.4765
▁Palmar	-10.4765
▁weird	-10.4765
▁reference	-10.4765
▁conform	-10.4765
▁genuine	-10.4765
▁footgear	-10.4765
▁Rockies	-10.4765
▁semi	-10.4765
▁trash	-10.4765
▁unusual	-10.4765
▁GET	-10.4765
▁bedroom	-10.4765
▁Halloween	-10.4765
▁AGAIN	-10.4765
▁Reebok	-10.4766
▁himself	-10.4766
▁Purchased	-10.4766
▁bushy	-10.4766
▁golf	-10.4766
▁$100	-10.4766
▁Room	-10.4766
▁Keep	-10.4767
▁basis	-10.4767
▁address	-10.4767
▁rubbing	-10.4767
▁foam	-10.4768
▁exposed	-10.4768
▁Italy	-10.4769
▁connect	-10.4773
2-3	-10.4775
▁road	-10.4775
▁learned	-10.4777
▁reply	-10.4777
▁Vein	-10.4781
▁CUTE	-10.4785
▁apron	-10.4785
▁adequate	-10.4786
▁authentic	-10.4786
▁thinner	-10.4787
▁notebook	-10.4787
▁disappointment	-10.4787
▁center	-10.4789
▁orange	-10.4791
PING	-10.4793
▁station	-10.4794
▁thermal	-10.4794
▁marked	-10.4795
▁passed	-10.4795
▁knit	-10.4798
▁puffs	-10.4802
▁sorry	-10.4802
▁appreciated	-10.4803
▁listen	-10.4804
▁rugged	-10.4811
▁GOOD	-10.4811
▁logging	-10.4815
▁useless	-10.4824
▁rounded	-10.4825
▁ice	-10.4825
▁spade	-10.4839
▁coins	-10.4846
ember	-10.4851
▁rings	-10.4858
▁shades	-10.4863
▁Key	-10.4874
▁lb	-10.4876
nity	-10.4884
ress	-10.4888
▁Do	-10.4891
▁bills	-10.4917
▁rolls	-10.492
▁hated	-10.492
▁tears	-10.4921
▁ha	-10.4932
are	-10.4946
▁wi	-10.4947
▁ma	-10.4956
ually	-10.4978
▁picking	-10.4981
▁save	-10.4982
▁rare	-10.4983
▁insert	-10.4988
K	-10.4993
off	-10.5055
▁supports	-10.5072
ST	-10.5101
high	-10.5122
▁checks	-10.5123
▁door	-10.5127
hood	-10.5129
go	-10.5133
R	-10.5191
▁state	-10.5198
▁$30	-10.5207
specially	-10.5228
ng	-10.5232
▁lo	-10.5245
▁bath	-10.5267
V	-10.5274
nt	-10.5278
white	-10.5288
interior	-10.5291
grade	-10.5357
▁Os	-10.5368
▁REALL	-10.5369
with	-10.538
▁plann	-10.541
▁butt	-10.5418
ot	-10.5452
▁waters	-10.5467
▁War	-10.5469
.99	-10.5521
......	-10.5563
tops	-10.5566
▁Co	-10.5586
▁Lip	-10.5628
▁complain	-10.5632
▁smile	-10.5671
▁shapes	-10.5671
▁temperature	-10.5675
tting	-10.569
oved	-10.5692
▁Lock	-10.5696
▁edge	-10.5702
▁section	-10.5712
▁event	-10.5729
▁wall	-10.5729
▁proud	-10.5743
▁trick	-10.5745
▁locate	-10.5746
too	-10.5752
▁Sure	-10.576
▁minimal	-10.5764
▁AWESOME	-10.5765
▁Material	-10.5765
▁bronze	-10.5765
▁individual	-10.5765
▁mirror	-10.5765
▁moisture	-10.5765
▁permanent	-10.5765
▁stupid	-10.5765
▁sufficient	-10.5765
▁Bostonian	-10.5765
▁affect	-10.5765
▁garage	-10.5765
▁December	-10.5765
▁Before	-10.5765
▁horrible	-10.5765
▁LIKE	-10.5765
▁crazy	-10.5765
▁guarantee	-10.5765
▁senior	-10.5765
▁sleek	-10.5765
▁contest	-10.5765
▁performance	-10.5765
▁supplier	-10.5765
▁cadet	-10.5765
▁Hopefully	-10.5765
▁fancy	-10.5766
▁okay	-10.5766
▁briefcase	-10.5766
▁Tommy	-10.5766
▁bearable	-10.5766
uick	-10.5766
▁outstanding	-10.5766
▁grab	-10.5768
▁handsome	-10.5769
▁newton	-10.5769
▁Hair	-10.5769
▁express	-10.577
▁fift	-10.5771
▁suggestion	-10.5771
ROM	-10.5772
▁Eggs	-10.5773
literally	-10.5773
▁article	-10.5777
▁superb	-10.5777
▁bump	-10.5777
▁sand	-10.5779
▁thumbs	-10.578
▁Feels	-10.578
▁fault	-10.5783
▁Comfort	-10.5783
▁damaged	-10.5784
▁Up	-10.5785
▁complained	-10.5785
▁NEW	-10.5787
▁Ano	-10.5788
▁prove	-10.5788
▁knock	-10.579
▁beads	-10.5791
▁Less	-10.5793
▁clothesline	-10.5794
▁traditional	-10.5795
▁cushioned	-10.5799
▁sewing	-10.5799
▁Ali	-10.5799
WOULD	-10.58
vin	-10.5802
▁ribs	-10.5805
▁indies	-10.5806
▁transport	-10.5807
▁created	-10.5808
▁bodysuits	-10.5809
▁gray	-10.581
▁chilly	-10.5811
WAY	-10.5811
▁zero	-10.5813
▁nipples	-10.5818
▁cuffs	-10.582
▁suffer	-10.5823
▁receipts	-10.5828
▁securely	-10.5831
▁Mar	-10.5834
▁plain	-10.5836
▁previously	-10.5837
▁openings	-10.5841
▁term	-10.5841
▁shrunk	-10.5842
▁wood	-10.5843
eather	-10.5844
▁checked	-10.5844
nother	-10.5846
ive	-10.5856
▁bulge	-10.5864
▁offering	-10.5864
▁tollers	-10.5869
▁filled	-10.587
▁rocks	-10.5877
▁pin	-10.588
▁bone	-10.588
▁kill	-10.5883
▁ANY	-10.5884
1)	-10.5885
▁joy	-10.5905
▁dots	-10.5906
▁ends	-10.5912
▁grey	-10.5916
▁whe	-10.5921
▁eight	-10.5932
▁badly	-10.5948
▁knows	-10.595
▁proof	-10.5958
▁assume	-10.5962
6	-10.5964
well	-10.5966
do	-10.5966
iness	-10.5969
▁periods	-10.5973
▁wheels	-10.5986
▁floors	-10.5991
▁sits	-10.5993
▁Return	-10.6002
▁Fig	-10.6009
▁bo	-10.6011
▁manufacture	-10.6042
▁ONE	-10.6043
▁drying	-10.6045
▁lay	-10.6067
▁bend	-10.6069
▁lips	-10.6073
▁gra	-10.6092
▁la	-10.6115
age	-10.6116
▁brush	-10.6152
▁oh	-10.6154
▁treat	-10.6177
am	-10.6182
end	-10.6183
▁rid	-10.6192
dditional	-10.62
▁Go	-10.6205
▁struggle	-10.6208
ept	-10.6208
ose	-10.6243
▁sign	-10.6269
▁tons	-10.6271
▁ch	-10.6275
▁17	-10.6279
▁lives	-10.6281
▁Ma	-10.6283
long	-10.6286
▁changes	-10.6307
▁select	-10.6331
nless	-10.6336
z	-10.6369
▁para	-10.6371
ur	-10.638
▁falls	-10.6392
▁pu	-10.6395
work	-10.6396
its	-10.6412
9	-10.6431
ring	-10.6435
▁gather	-10.6444
▁hesitate	-10.6455
▁enter	-10.646
SE	-10.6461
style	-10.6467
Shirt	-10.647
rd	-10.6477
▁plane	-10.6538
▁ac	-10.6545
tride	-10.6548
THE	-10.6554
ula	-10.6595
▁ja	-10.6606
slip	-10.6613
ON	-10.6649
erous	-10.6666
▁ONL	-10.668
▁YOUR	-10.6707
▁war	-10.6714
uit	-10.6722
▁Cal	-10.6731
▁Giv	-10.6737
▁Mad	-10.6745
▁perform	-10.6761
▁3-	-10.677
▁regard	-10.6772
▁question	-10.6782
▁Cr	-10.6785
▁load	-10.6798
▁thread	-10.6798
▁towel	-10.6814
▁accident	-10.6822
▁ways	-10.6828
▁EVERY	-10.6835
▁ridiculous	-10.6854
▁advise	-10.6855
▁constant	-10.6855
▁balance	-10.6855
▁chill	-10.686
▁designs	-10.6864
▁speak	-10.6866
▁PRODUCT	-10.6873
▁Did	-10.6875
▁NEED	-10.6875
▁uniform	-10.6876
▁Valentine	-10.6876
▁breastfeeding	-10.6876
▁church	-10.6876
▁convenience	-10.6876
▁effort	-10.6876
▁hundred	-10.6876
▁mummy	-10.6876
▁schedule	-10.6876
▁significant	-10.6876
▁Goddess	-10.6876
▁batteries	-10.6876
▁competition	-10.6876
▁spoke	-10.6876
▁research	-10.6876
▁Wonderful	-10.6876
▁prepared	-10.6876
▁Sometimes	-10.6876
▁patent	-10.6876
▁Instead	-10.6876
▁Prob	-10.6876
▁doctor	-10.6876
▁991	-10.6877
▁joke	-10.6877
▁unhappy	-10.6877
GB	-10.6877
▁maintain	-10.6877
▁milk	-10.6878
▁impressive	-10.6878
▁squeaky	-10.6878
▁applied	-10.6878
▁partner	-10.6879
▁Small	-10.6879
▁shine	-10.688
▁among	-10.688
▁Blue	-10.688
?)	-10.688
▁Color	-10.688
▁expand	-10.688
▁damage	-10.6881
▁fluffy	-10.6881
▁chair	-10.6881
▁poking	-10.6881
▁num	-10.6881
▁improved	-10.6882
▁Touch	-10.6882
▁documents	-10.6882
▁dimensions	-10.6883
▁Sole	-10.6883
▁crew	-10.6883
▁Later	-10.6884
▁See	-10.6884
▁Two	-10.6885
▁retain	-10.6885
▁oversized	-10.6885
▁retailer	-10.6885
▁White	-10.6885
▁Bank	-10.6885
▁court	-10.6886
▁taste	-10.6886
▁footmen	-10.6886
▁refused	-10.6888
▁pleasure	-10.6889
▁favor	-10.6893
▁slot	-10.6894
▁odor	-10.6895
vir	-10.6897
▁laugh	-10.6898
▁trend	-10.6899
▁SHIP	-10.69
▁Napole	-10.6901
▁Kept	-10.6901
▁marathon	-10.6901
▁Mallet	-10.6901
▁9.5	-10.6902
▁moderate	-10.6902
▁louse	-10.6903
▁dancing	-10.6904
▁distances	-10.6904
▁gutt	-10.6905
▁factor	-10.6905
▁ad	-10.6905
▁modest	-10.6907
▁solution	-10.6907
▁spot	-10.6908
▁accept	-10.6909
▁finished	-10.6909
▁Wants	-10.6911
▁grand	-10.6912
▁Should	-10.6912
▁grown	-10.6913
▁Hard	-10.6914
▁dust	-10.6914
▁rolled	-10.6915
▁Cap	-10.6918
▁vest	-10.6919
▁blend	-10.6922
▁saving	-10.6924
▁binding	-10.6927
▁grass	-10.6934
▁yard	-10.6941
▁carts	-10.6942
▁wondering	-10.6943
▁appeared	-10.6947
▁90	-10.6952
▁Means	-10.6956
▁create	-10.6961
▁threads	-10.6963
rrived	-10.6977
▁suggested	-10.6978
▁bubbles	-10.6983
▁protected	-10.6988
▁rigid	-10.6993
▁stains	-10.6994
reative	-10.6996
▁workers	-10.6996
▁supple	-10.7004
▁nurse	-10.7005
▁sticking	-10.7006
▁mess	-10.7011
▁x	-10.7012
▁fingers	-10.7022
▁magic	-10.7025
▁loops	-10.7032
▁warmer	-10.7034
▁rip	-10.7035
▁REAL	-10.7037
▁sp	-10.7054
un	-10.7054
▁Rockports	-10.7056
▁dresser	-10.7078
▁dad	-10.7092
▁stuffed	-10.7107
get	-10.711
▁papers	-10.711
oth	-10.7122
▁train	-10.7123
med	-10.7126
ty	-10.7143
▁intens	-10.7156
▁turns	-10.7182
▁fasten	-10.7184
ard	-10.7211
▁li	-10.7218
▁blow	-10.7245
▁moves	-10.7255
▁lack	-10.7258
▁cells	-10.7283
▁fear	-10.7293
▁rides	-10.7294
▁sticks	-10.7303
when	-10.7352
▁sites	-10.7355
tic	-10.7364
▁$2	-10.7367
▁young	-10.7371
▁models	-10.7413
ior	-10.7425
▁jackets	-10.7526
▁owner	-10.7529
▁weak	-10.7544
spit	-10.7569
▁6-	-10.7575
color	-10.7585
▁strip	-10.7591
ner	-10.7603
ort	-10.7635
▁raise	-10.7647
ible	-10.7658
bu	-10.7681
alking	-10.7685
leather	-10.7686
▁license	-10.771
▁nine	-10.7718
suitable	-10.7723
neck	-10.7732
fold	-10.7741
▁curl	-10.7741
▁$50	-10.7748
▁Top	-10.7756
ge	-10.7759
box	-10.7763
ship	-10.7778
▁heart	-10.7783
ning	-10.7841
visible	-10.7847
▁inform	-10.7851
▁ski	-10.7868
ary	-10.7882
ile	-10.7892
down	-10.79
▁Ver	-10.7903
tain	-10.7905
deal	-10.7909
▁St	-10.7959
▁stretche	-10.7982
ure	-10.7983
ood	-10.7987
▁limit	-10.7995
sized	-10.8013
olds	-10.8022
▁nephew	-10.8028
▁bab	-10.8028
▁31	-10.803
▁niece	-10.8032
▁shawl	-10.8032
▁bubble	-10.8034
ENT	-10.8035
show	-10.8039
▁blister	-10.8063
ACK	-10.8073
▁discover	-10.8078
▁8.5	-10.8079
▁Mean	-10.8084
▁hunt	-10.8097
▁appeal	-10.8097
▁annoy	-10.8099
▁mar	-10.8102
▁generous	-10.8105
▁fearless	-10.8105
▁obvious	-10.8106
▁occasional	-10.8108
▁request	-10.8108
▁Arm	-10.8114
▁curve	-10.8114
▁extend	-10.812
▁sweet	-10.8124
▁desire	-10.8125
▁Pacific	-10.8126
▁LOOK	-10.8126
▁Carhar	-10.8126
▁Classic	-10.8126
▁Dynamite	-10.8126
▁Florsheim	-10.8126
▁Fossil	-10.8126
▁Hawaii	-10.8126
▁Service	-10.8126
▁Yuma	-10.8126
▁aerobic	-10.8126
▁awkward	-10.8126
▁capacity	-10.8126
▁concrete	-10.8126
▁cumbersome	-10.8126
▁vigor	-10.8126
▁whistling	-10.8126
▁Basically	-10.8126
▁whatsoever	-10.8126
▁cheeks	-10.8126
▁LONG	-10.8126
▁flannel	-10.8126
▁Chuck	-10.8126
▁bundle	-10.8126
▁basketball	-10.8126
▁spacious	-10.8126
▁accessory	-10.8126
▁metallic	-10.8126
▁TOO	-10.8126
▁USB	-10.8126
▁confident	-10.8126
▁Guide	-10.8126
▁bounding	-10.8126
▁portion	-10.8126
▁HAD	-10.8126
▁statement	-10.8126
▁magnetic	-10.8126
▁NICE	-10.8126
▁tongue	-10.8127
▁drink	-10.8127
▁saddle	-10.8127
▁scuffle	-10.8127
▁investment	-10.8127
▁lenses	-10.8127
▁title	-10.8127
▁undone	-10.8127
▁dropped	-10.8128
▁therefore	-10.8128
▁contrast	-10.8129
▁lifetime	-10.8129
▁Usually	-10.813
▁Span	-10.813
▁binder	-10.813
▁anticipated	-10.813
▁stunning	-10.8132
▁flight	-10.8133
▁responded	-10.8135
▁misleading	-10.8136
▁adjustment	-10.8136
▁missed	-10.8136
▁counter	-10.8137
▁Began	-10.8137
▁damp	-10.8138
▁mud	-10.8141
▁bank	-10.8142
hing	-10.8143
▁pillow	-10.8146
▁food	-10.815
▁revealing	-10.815
▁record	-10.8151
▁RIGHT	-10.8152
▁beauty	-10.8153
▁Merrell	-10.8154
▁World	-10.8154
▁Vision	-10.8154
▁capered	-10.8154
▁contour	-10.8154
▁improvement	-10.8154
▁Place	-10.8155
▁technology	-10.8155
▁involved	-10.8156
▁anybody	-10.8156
comfortable	-10.8157
▁overlay	-10.8158
▁Due	-10.816
▁Been	-10.8161
▁instep	-10.8162
▁Free	-10.8164
▁seriously	-10.8164
▁following	-10.8165
▁scratched	-10.8166
▁meet	-10.8169
▁wrinkled	-10.8172
UCH	-10.8172
▁(2)	-10.8173
▁cracking	-10.8174
▁ca	-10.8175
▁washable	-10.818
rief	-10.8184
▁Navy	-10.819
▁ivory	-10.8191
▁duty	-10.8193
▁rolling	-10.8194
▁undershirts	-10.8197
▁risk	-10.8199
▁lap	-10.82
▁bridesmaids	-10.8207
▁Ports	-10.8207
▁Happy	-10.8229
▁ensure	-10.8236
▁sleeper	-10.8241
▁sections	-10.8243
▁thou	-10.8252
▁cow	-10.8252
▁hurting	-10.8261
ess	-10.8275
▁va	-10.8279
Fact	-10.8286
▁backpacking	-10.8293
▁drops	-10.8294
retro	-10.8302
▁devices	-10.8306
▁notch	-10.8308
here	-10.831
▁row	-10.8312
▁$3	-10.8315
▁shorter	-10.8318
▁friendly	-10.833
▁opening	-10.8338
▁var	-10.836
▁hits	-10.836
▁layers	-10.8363
▁wraps	-10.8381
▁Fr	-10.8385
▁rates	-10.8386
▁regularly	-10.8405
ian	-10.8416
▁holders	-10.8432
▁MO	-10.8447
fit	-10.8468
▁sweatshirts	-10.8472
▁block	-10.8489
▁beside	-10.8494
▁mo	-10.8496
▁TR	-10.8516
ION	-10.8522
▁shaped	-10.8535
▁squeez	-10.8539
▁ver	-10.8543
▁Van	-10.8547
▁pens	-10.8557
▁fee	-10.8559
▁$40	-10.8562
ture	-10.8566
▁park	-10.8622
ne	-10.8633
▁suck	-10.8634
ONE	-10.8681
low	-10.8707
▁Box	-10.8713
▁plant	-10.8729
▁Par	-10.8737
quality	-10.8752
les	-10.8763
▁pop	-10.8775
land	-10.878
▁oil	-10.8785
than	-10.8796
ha	-10.8809
appears	-10.882
Pass	-10.8827
▁di	-10.8844
yes	-10.8844
▁FIT	-10.8859
▁cares	-10.8875
more	-10.8879
▁port	-10.8887
ol	-10.8899
verything	-10.8906
top	-10.8921
▁breaks	-10.894
▁packages	-10.8958
also	-10.8969
some	-10.8977
see	-10.901
led	-10.9023
though	-10.9039
ese	-10.905
small	-10.9079
dden	-10.9091
▁Tom	-10.9103
time	-10.911
▁Fo	-10.9111
type	-10.9118
!!!!!	-10.9121
oyal	-10.9123
hole	-10.9151
point	-10.9154
per	-10.917
▁scent	-10.9183
▁seconds	-10.9196
To	-10.9197
house	-10.9235
blue	-10.9241
school	-10.9246
ull	-10.9249
free	-10.925
average	-10.9255
ach	-10.9255
▁fac	-10.9261
Large	-10.9263
▁Re	-10.9264
▁Li	-10.927
▁$1	-10.9274
OUT	-10.9275
▁shed	-10.928
TH	-10.9281
▁GO	-10.9281
▁rack	-10.9291
▁hem	-10.9295
▁ho	-10.9299
ped	-10.9299
ab	-10.9301
▁Extr	-10.9315
v	-10.9343
▁tack	-10.9375
her	-10.9377
Not	-10.9381
▁kn	-10.9391
▁bodi	-10.9407
▁If	-10.9408
skin	-10.9427
▁advertisement	-10.9442
▁situation	-10.9442
??	-10.945
▁carrier	-10.945
▁cloud	-10.9452
▁buck	-10.9461
▁bridesmaid	-10.9462
▁stra	-10.9463
▁receipt	-10.9463
▁indoor	-10.9465
▁Port	-10.9467
▁outlet	-10.9484
▁content	-10.9487
U	-10.9488
▁wanting	-10.9497
▁disappoint	-10.9504
▁shift	-10.9526
▁reveal	-10.9527
▁bind	-10.9534
▁jump	-10.9536
▁learn	-10.9537
▁decide	-10.9537
▁fray	-10.9537
ia	-10.9538
▁America	-10.9539
▁tip	-10.954
▁Ran	-10.9542
▁repeated	-10.955
ustomer	-10.9552
▁ORDER	-10.9554
▁success	-10.9554
▁Avenue	-10.9555
▁BEFORE	-10.9555
▁Chicago	-10.9555
▁Florida	-10.9555
▁HAPPY	-10.9555
▁HUGE	-10.9555
▁Italian	-10.9555
▁circulation	-10.9555
▁climate	-10.9555
▁compression	-10.9555
▁confidence	-10.9555
▁coordinat	-10.9555
▁decision	-10.9555
▁error	-10.9555
▁masculine	-10.9555
▁recipient	-10.9555
▁sevier	-10.9555
▁stomach	-10.9555
▁CHEAP	-10.9555
▁constricting	-10.9555
▁reinforce	-10.9555
▁School	-10.9555
▁boutique	-10.9555
▁leggings	-10.9555
▁velvet	-10.9555
▁competitive	-10.9555
▁Beautiful	-10.9555
▁Enjoy	-10.9555
▁Columbia	-10.9555
▁comparison	-10.9555
▁deceiving	-10.9555
▁South	-10.9555
▁Russell	-10.9555
▁clung	-10.9555
▁garter	-10.9555
▁enemies	-10.9555
▁Target	-10.9555
▁corset	-10.9555
▁luxurious	-10.9555
▁Glance	-10.9555
▁helmet	-10.9555
▁suspect	-10.9555
▁DID	-10.9555
▁Stretch	-10.9555
▁Levi	-10.9555
▁static	-10.9555
▁canvas	-10.9555
▁labelled	-10.9555
▁Therefore	-10.9555
▁coupon	-10.9555
▁Bowl	-10.9555
▁lounging	-10.9556
▁student	-10.9556
▁Western	-10.9556
▁burgundy	-10.9556
▁conservative	-10.9556
▁spoil	-10.9556
▁steep	-10.9556
▁rude	-10.9556
▁suddenly	-10.9556
▁spread	-10.9556
▁England	-10.9557
▁memory	-10.9557
▁club	-10.9557
ordan	-10.9557
TLE	-10.9557
▁warning	-10.9557
▁herself	-10.9557
▁fishes	-10.9557
▁container	-10.9557
▁olive	-10.9557
▁March	-10.9558
▁slow	-10.9558
▁teenager	-10.9559
▁tissue	-10.9559
▁manufacturing	-10.956
▁itchy	-10.956
▁headband	-10.956
▁Pocket	-10.956
▁700	-10.9561
▁interested	-10.9562
▁heal	-10.9562
▁ounces	-10.9562
▁unbelievable	-10.9563
▁clasp	-10.9563
▁quest	-10.9563
ced	-10.9563
ability	-10.9564
▁oz	-10.9564
▁collect	-10.9565
▁embarrassing	-10.9566
▁noise	-10.9566
▁repeat	-10.9566
▁honestly	-10.9566
▁worse	-10.9567
▁advantage	-10.9572
▁pleasing	-10.9574
▁somewhere	-10.9575
▁freeze	-10.9576
▁city	-10.9576
▁grew	-10.9576
▁earmuffs	-10.9577
uly	-10.9579
▁jumping	-10.958
▁source	-10.9583
lbs	-10.9584
▁june	-10.9585
▁gloss	-10.9586
DDD	-10.9586
▁leopard	-10.9586
▁Letter	-10.9586
▁advertising	-10.9586
▁Champion	-10.9586
▁Body	-10.9586
▁drag	-10.9588
▁cleaner	-10.9588
▁ruined	-10.9589
▁failed	-10.959
▁cargo	-10.959
▁factory	-10.959
▁birkenstocks	-10.9591
▁Slippers	-10.9591
▁Today	-10.9592
▁flower	-10.9592
cy	-10.9594
▁rule	-10.9598
▁sew	-10.9602
▁parents	-10.9603
▁Didn	-10.9604
▁fiance	-10.9604
▁corners	-10.9606
▁trousers	-10.9606
▁image	-10.9607
▁dusted	-10.9608
OWN	-10.9615
▁plush	-10.9616
▁soap	-10.9619
▁ultimate	-10.9626
OLD	-10.9627
▁closer	-10.9628
▁Cotton	-10.9629
▁carefully	-10.9633
▁boat	-10.9633
▁holidays	-10.9634
▁laws	-10.9654
▁Case	-10.9654
ang	-10.966
▁che	-10.9665
▁lounge	-10.9667
▁dogs	-10.9669
▁70	-10.9669
▁Time	-10.967
▁1.	-10.9671
▁loads	-10.9672
▁assure	-10.9673
▁loss	-10.9678
▁yeah	-10.9681
▁filling	-10.9681
ney	-10.9685
▁Locks	-10.9693
▁adjusting	-10.9696
tern	-10.9698
▁sweating	-10.9731
▁runners	-10.9734
▁ba	-10.9735
▁checking	-10.9736
▁torn	-10.9738
lock	-10.9739
▁lasts	-10.9758
terior	-10.976
▁200	-10.976
▁dog	-10.9761
▁fashioned	-10.9773
▁cleaning	-10.9775
▁colours	-10.9779
▁pumps	-10.9792
site	-10.9792
3)	-10.9793
▁fi	-10.9795
rench	-10.9805
▁wrinkles	-10.9812
▁results	-10.9822
▁manufacturers	-10.9836
▁OUT	-10.9843
ical	-10.9855
▁com	-10.986
▁pet	-10.9871
ssed	-10.9872
▁chang	-10.9872
▁$80	-10.9876
?"	-10.9882
10	-10.9893
ES	-10.9911
uction	-10.9914
▁absorb	-10.9914
▁max	-10.9914
ound	-10.9957
▁19	-10.9959
dded	-10.9971
▁Cor	-10.9971
▁seasons	-10.998
▁7.	-10.9994
▁cord	-10.9999
ro	-11.0003
,"	-11.0011
▁Ear	-11.0011
▁Ho	-11.0012
▁flexib	-11.0014
7	-11.0029
▁Ha	-11.0032
ALLY	-11.0056
rs	-11.0067
good	-11.008
il	-11.0095
▁Gun	-11.0102
▁caps	-11.0109
▁wasted	-11.0126
▁Bu	-11.0143
▁Us	-11.0143
ey	-11.0149
▁tightly	-11.0152
▁em	-11.0185
bag	-11.0188
azz	-11.021
▁gowns	-11.0211
▁22	-11.0215
fitting	-11.0218
ational	-11.024
▁DON	-11.0242
▁goal	-11.0244
▁shot	-11.0277
▁1/	-11.0284
▁SH	-11.0292
te	-11.0338
▁supported	-11.0399
because	-11.0409
▁ro	-11.0423
she	-11.0425
▁styled	-11.0439
order	-11.0471
mple	-11.0482
aving	-11.0489
buy	-11.0498
▁purchases	-11.0519
▁wire	-11.053
ig	-11.0532
ant	-11.0532
ra	-11.0548
ITE	-11.0588
▁dare	-11.059
▁wise	-11.0626
.00	-11.063
▁closes	-11.0637
▁soften	-11.0637
▁sl	-11.0662
▁lengths	-11.0681
Very	-11.0699
nice	-11.0702
▁Arriv	-11.0714
ul	-11.0777
But	-11.0779
foot	-11.0789
And	-11.079
ma	-11.0808
▁Le	-11.0817
ex	-11.0851
▁avail	-11.0851
string	-11.0857
▁sa	-11.0859
front	-11.0861
▁wa	-11.0871
medium	-11.0875
▁$4	-11.0881
boy	-11.0883
screen	-11.0902
maybe	-11.0906
▁bare	-11.0916
although	-11.0918
resistant	-11.0927
der	-11.093
ilk	-11.0941
▁win	-11.0947
▁pe	-11.0952
▁temp	-11.0957
placing	-11.0969
wood	-11.0975
33	-11.0988
▁---	-11.1004
???	-11.1019
▁j	-11.1021
▁bu	-11.1032
▁breath	-11.1035
prices	-11.1046
use	-11.1048
▁MP	-11.1075
erior	-11.1078
▁report	-11.1087
▁Boy	-11.1092
▁female	-11.1108
▁min	-11.1113
▁flow	-11.1114
▁wrist	-11.1126
▁tube	-11.1128
▁holiday	-11.1128
▁nipple	-11.113
▁wo	-11.1134
▁members	-11.1135
▁shipper	-11.1138
▁repair	-11.1138
▁pound	-11.114
▁se	-11.1144
▁ab	-11.1147
▁puff	-11.1153
▁$18	-11.1156
▁stud	-11.1164
▁setting	-11.1165
AKE	-11.1174
where	-11.1177
▁tree	-11.1178
▁Sp	-11.1186
▁silicon	-11.1189
▁leak	-11.1194
▁necessar	-11.1195
▁angle	-11.1196
▁definite	-11.1201
OUS	-11.1203
▁refuse	-11.1203
▁efficient	-11.1204
▁3/4	-11.1204
▁Real	-11.1206
▁remind	-11.1213
▁Pal	-11.1219
▁LARGE	-11.1221
▁coffee	-11.1221
▁Apparel	-11.1221
▁Bearpaw	-11.1221
▁Converse	-11.1221
▁MacBook	-11.1221
▁OTHER	-11.1221
▁Obviously	-11.1221
▁Perhaps	-11.1221
▁Prompt	-11.1221
▁Surprisingly	-11.1221
▁Wallabee	-11.1221
▁absorption	-11.1221
▁afford	-11.1221
▁bikinis	-11.1221
▁cologne	-11.1221
▁consumer	-11.1221
▁environment	-11.1221
▁horizontal	-11.1221
▁kitchen	-11.1221
▁neutral	-11.1221
▁pavement	-11.1221
▁tendency	-11.1221
▁voice	-11.1221
▁AROUND	-11.1221
▁Wolf	-11.1221
▁draped	-11.1221
▁feedback	-11.1221
▁mouth	-11.1221
▁surgery	-11.1221
▁terrain	-11.1221
▁Radical	-11.1221
▁thorough	-11.1221
▁residue	-11.1221
▁opposite	-11.1221
▁Alaska	-11.1221
▁toiletries	-11.1221
▁desert	-11.1221
ACKET	-11.1221
▁imagination	-11.1221
▁massage	-11.1221
▁Sorry	-11.1221
▁introduce	-11.1221
▁activity	-11.1221
▁cigar	-11.1221
▁decline	-11.1221
▁Winter	-11.1221
▁abdomen	-11.1221
▁premium	-11.1221
▁valour	-11.1221
▁Support	-11.1221
▁answer	-11.1222
▁example	-11.1222
▁barefoot	-11.1222
▁cruise	-11.1222
▁Check	-11.1222
▁status	-11.1222
▁nightgown	-11.1222
▁polar	-11.1222
▁raincoat	-11.1222
▁groceries	-11.1222
▁opaque	-11.1222
▁Beware	-11.1222
▁Taylor	-11.1222
▁necktie	-11.1222
▁tireless	-11.1222
▁Aerosoles	-11.1222
▁accessible	-11.1222
▁endowed	-11.1222
▁arrival	-11.1222
▁AFTER	-11.1222
▁Internet	-11.1222
▁Australia	-11.1222
▁postage	-11.1222
▁WELL	-11.1222
November	-11.1222
▁Web	-11.1222
▁grape	-11.1222
▁2005	-11.1222
rope	-11.1223
▁array	-11.1223
▁Trunk	-11.1223
▁downfall	-11.1223
▁Granted	-11.1223
▁feeding	-11.1223
▁delay	-11.1224
▁droning	-11.1224
▁heaven	-11.1224
▁Summer	-11.1224
▁message	-11.1224
▁ordinary	-11.1224
▁Boots	-11.1224
▁overhead	-11.1225
▁Mind	-11.1225
▁5'2"	-11.1225
OCK	-11.1226
▁embo	-11.1226
▁retired	-11.1226
▁consideration	-11.1226
▁canceled	-11.1226
medical	-11.1226
▁beginning	-11.1227
▁shame	-11.1227
▁acceptable	-11.1228
▁catches	-11.1228
▁drawstring	-11.1228
▁strike	-11.1228
▁BEST	-11.1229
▁screw	-11.123
▁hotel	-11.1231
▁Lane	-11.1231
▁chlorine	-11.1231
▁Unable	-11.1232
▁pilot	-11.1232
▁effective	-11.1233
▁solved	-11.1233
▁altered	-11.1233
▁sparkle	-11.1234
▁camping	-11.1234
▁driver	-11.1234
▁Went	-11.1235
▁elasticity	-11.1236
▁interesting	-11.1237
▁roller	-11.1238
▁reminded	-11.1239
▁tables	-11.1242
▁labor	-11.1243
▁effectively	-11.1243
▁structure	-11.1243
▁desired	-11.1245
▁pale	-11.1248
▁taller	-11.1248
▁resist	-11.1249
▁gait	-11.125
▁Need	-11.125
▁leaking	-11.1251
▁generously	-11.1251
▁healing	-11.1252
▁Green	-11.1253
cycling	-11.1254
▁ridiculously	-11.1255
▁disappear	-11.1256
▁hunting	-11.1257
▁printed	-11.1257
▁apparel	-11.1257
▁attempt	-11.1257
▁beige	-11.1257
▁concept	-11.1258
▁dooties	-11.1258
▁leads	-11.1258
▁microfiber	-11.1258
▁field	-11.1258
▁Hence	-11.1258
▁THANKS	-11.1259
▁proudly	-11.1259
▁thankful	-11.1259
▁storm	-11.126
▁convert	-11.126
▁frequently	-11.126
▁NOW	-11.1261
▁portable	-11.1262
▁functionality	-11.1263
▁cracked	-11.1264
gb	-11.1265
▁primar	-11.1265
▁directions	-11.1265
LIT	-11.1265
▁donate	-11.1266
▁drawer	-11.1267
▁softness	-11.1268
▁Father	-11.1274
▁Ro	-11.1278
▁race	-11.1278
ware	-11.1278
▁sucks	-11.1279
▁worthless	-11.1282
▁mountains	-11.1282
▁naturally	-11.1282
▁pitching	-11.1285
▁twins	-11.1286
▁separated	-11.1287
▁faded	-11.1289
▁cords	-11.1299
▁release	-11.1304
▁story	-11.1305
▁produced	-11.1306
▁Run	-11.1307
▁Felt	-11.1309
▁looted	-11.1312
▁fuller	-11.1312
▁settings	-11.1312
▁El	-11.1313
▁mary	-11.1317
▁FRO	-11.1318
▁organized	-11.1327
▁adjusted	-11.133
▁loaded	-11.1334
nced	-11.1338
▁chester	-11.1348
▁nieces	-11.135
▁shawls	-11.1351
▁aunt	-11.1352
▁tied	-11.1355
▁Hero	-11.1359
▁towels	-11.136
▁snowy	-11.1366
▁questions	-11.1368
▁esp	-11.1373
related	-11.1382
xactly	-11.1383
-10	-11.1392
▁Late	-11.1396
way	-11.1399
▁lies	-11.1399
▁theirs	-11.1404
▁Seem	-11.1407
▁carrie	-11.1422
▁sack	-11.1429
▁calling	-11.1429
▁How	-11.1445
▁slippery	-11.1451
▁Compare	-11.1453
12	-11.1473
▁beating	-11.1474
ds	-11.1479
▁gladly	-11.149
▁da	-11.1493
▁dr	-11.1505
riefs	-11.1511
▁weights	-11.1512
▁pr	-11.1512
ize	-11.1523
▁24	-11.1526
▁comm	-11.155
▁attract	-11.1557
▁camel	-11.1559
▁dock	-11.156
▁par	-11.1566
ssenger	-11.1568
▁disc	-11.1579
briefs	-11.1581
▁Protect	-11.1584
▁Out	-11.1591
MP	-11.1601
END	-11.1601
▁n	-11.1637
ef	-11.1656
▁willing	-11.1663
USE	-11.1669
▁4"	-11.1669
▁remarkabl	-11.1688
ign	-11.1691
ries	-11.1701
ling	-11.1707
▁Can	-11.1707
▁costumes	-11.1716
▁finds	-11.1718
▁act	-11.1724
▁ability	-11.1728
▁k	-11.174
▁6'	-11.174
wish	-11.1747
new	-11.1753
▁stretching	-11.1764
▁sk	-11.177
▁balls	-11.1792
hipped	-11.1801
▁convi	-11.1814
que	-11.183
▁causes	-11.1831
▁coats	-11.1839
▁Com	-11.1871
▁Brother	-11.1883
accidentally	-11.1884
▁2.	-11.1893
▁restor	-11.1967
uge	-11.1968
OULD	-11.1976
▁Pi	-11.1985
▁$12	-11.1988
ear	-11.1989
▁bell	-11.1996
▁force	-11.2011
His	-11.2015
50	-11.2018
ving	-11.2021
▁$60	-11.2031
▁fees	-11.2033
▁lie	-11.2045
▁toward	-11.2047
▁Char	-11.2054
▁hu	-11.2056
pack	-11.2059
ark	-11.2059
bought	-11.2072
ick	-11.2086
right	-11.2113
▁45	-11.2121
xtreme	-11.2123
by	-11.2146
mark	-11.216
▁$5	-11.2166
ence	-11.2169
▁possibl	-11.2191
pair	-11.2192
▁cart	-11.22
pecifically	-11.2204
▁bowl	-11.2214
UE	-11.2231
then	-11.2235
▁PRO	-11.2277
llows	-11.228
▁mi	-11.2286
▁los	-11.2286
2)	-11.2294
▁52	-11.2294
80	-11.2339
ine	-11.2341
▁Sh	-11.2354
▁deb	-11.2356
icker	-11.2357
▁Likes	-11.2369
▁exception	-11.2378
▁purses	-11.2384
▁hum	-11.2387
light	-11.2391
▁rais	-11.2408
▁aid	-11.2414
▁26	-11.242
close	-11.2434
▁Vi	-11.2442
rt	-11.2447
▁Note	-11.2456
▁sho	-11.2482
▁flu	-11.2488
▁burn	-11.2491
after	-11.2497
▁SA	-11.25
▁Sam	-11.2511
▁5-	-11.2538
3.5	-11.2551
▁Air	-11.2565
▁reduce	-11.2568
proof	-11.2594
OES	-11.2599
een	-11.2607
mine	-11.2615
Part	-11.2625
ned	-11.2633
▁cent	-11.2662
-7	-11.2664
▁notic	-11.2671
▁withstand	-11.2676
black	-11.2686
gage	-11.2688
ESS	-11.2691
▁provid	-11.2732
wallet	-11.2743
▁$25	-11.2749
▁news	-11.2751
▁bl	-11.2772
▁Ex	-11.2792
strap	-11.2818
▁Sta	-11.2845
ordered	-11.2856
half	-11.286
plus	-11.2877
▁!!!	-11.2896
▁Heal	-11.2897
orta	-11.2898
except	-11.2906
designed	-11.2914
▁invest	-11.2915
▁Shee	-11.2949
▁rep	-11.2952
▁ring	-11.2954
flaps	-11.2975
hour	-11.2978
▁ill	-11.2987
▁increas	-11.3011
hand	-11.302
▁seek	-11.3021
de	-11.3026
▁Bell	-11.3039
▁join	-11.3045
runner	-11.3045
seam	-11.3057
▁Wash	-11.3057
▁stor	-11.3068
▁tour	-11.3071
real	-11.3079
REE	-11.309
nior	-11.3101
▁proportion	-11.3108
▁crowd	-11.3113
▁jean	-11.3115
▁Kayano	-11.3118
▁defect	-11.3122
▁compliment	-11.3123
▁decade	-11.3123
-6	-11.3124
▁degree	-11.3126
hose	-11.3126
suit	-11.3127
▁Foot	-11.313
▁bodysuit	-11.3133
▁chain	-11.3134
▁Ki	-11.3134
men	-11.3138
▁flaw	-11.3141
▁ob	-11.3143
▁rib	-11.3143
ap	-11.3146
losing	-11.3153
▁11.	-11.3154
▁represent	-11.3156
▁mile	-11.3157
▁wee	-11.3164
▁Hu	-11.3166
▁trail	-11.3166
▁twin	-11.3166
▁Onl	-11.3178
▁nerv	-11.318
▁Star	-11.3183
▁slid	-11.3188
▁choos	-11.3189
▁climb	-11.3192
▁hug	-11.3198
ette	-11.3201
▁absolute	-11.3201
▁Recommend	-11.3202
▁survive	-11.3202
▁undershirt	-11.3202
Sac	-11.3209
▁ju	-11.321
▁drie	-11.321
abric	-11.3218
▁TIME	-11.3219
inished	-11.322
▁micro	-11.3221
▁Children	-11.3221
▁slender	-11.3221
UALITY	-11.3221
▁ALWAYS	-11.3221
▁Bravado	-11.3221
▁Brazil	-11.3221
▁CHRISTMAS	-11.3221
▁DKNY	-11.3221
▁DVD	-11.3221
▁FEEL	-11.3221
▁Friday	-11.3221
▁Gigabeat	-11.3221
▁Initially	-11.3221
▁Microride	-11.3221
▁October	-11.3221
▁SMALL	-11.3221
▁SOFT	-11.3221
▁Similar	-11.3221
▁Sturdy	-11.3221
▁caution	-11.3221
▁character	-11.3221
▁courteous	-11.3221
▁determine	-11.3221
▁embroidered	-11.3221
▁embroidery	-11.3221
▁equivalent	-11.3221
▁glimmer	-11.3221
▁honeymoon	-11.3221
▁inconvenience	-11.3221
▁induration	-11.3221
▁jungle	-11.3221
▁opportunity	-11.3221
▁pencil	-11.3221
▁reluctant	-11.3221
▁turquoise	-11.3221
▁David	-11.3221
▁MADE	-11.3221
▁Texas	-11.3221
▁cautious	-11.3221
▁crooked	-11.3221
▁strength	-11.3221
Manhattan	-11.3221
▁Additionally	-11.3221
▁relief	-11.3221
▁underwires	-11.3221
▁Colorado	-11.3221
▁subtle	-11.3221
▁specified	-11.3221
▁representative	-11.3221
▁Trail	-11.3221
▁minimum	-11.3221
▁PLUS	-11.3221
▁USPS	-11.3221
▁Nautical	-11.3221
▁Normal	-11.3221
▁cousin	-11.3221
▁KNOW	-11.3221
▁commune	-11.3221
ICE	-11.3221
▁lagging	-11.3221
▁percent	-11.3221
▁FAST	-11.3221
▁YEARS	-11.3221
▁chafe	-11.3221
▁sweatpants	-11.3221
▁envy	-11.3221
▁flaming	-11.3221
▁promotion	-11.3221
▁smoke	-11.3221
▁group	-11.3221
▁California	-11.3221
▁SINCE	-11.3221
▁SOCKS	-11.3221
▁freedom	-11.3221
▁Wonder	-11.3221
▁flesh	-11.3221
▁guide	-11.3222
▁ragged	-11.3222
▁STILL	-11.3222
▁MORE	-11.3222
▁benefit	-11.3222
▁motorcycle	-11.3222
▁fifteen	-11.3222
▁Little	-11.3222
▁demand	-11.3222
▁naked	-11.3222
▁Travel	-11.3222
▁Sincerely	-11.3222
▁frustration	-11.3222
▁ventilator	-11.3222
▁journal	-11.3222
rilliant	-11.3222
▁SANDALS	-11.3222
▁Boston	-11.3222
▁magazine	-11.3222
▁absorbent	-11.3222
▁giant	-11.3222
▁992	-11.3223
▁$19.99	-11.3223
▁pricking	-11.3223
▁tailor	-11.3223
▁abuse	-11.3223
▁loud	-11.3223
gni	-11.3223
VC	-11.3223
▁floppy	-11.3223
▁million	-11.3223
▁SHOES	-11.3223
▁docs	-11.3223
▁empty	-11.3223
▁gentle	-11.3223
▁distressed	-11.3224
▁apparently	-11.3224
▁health	-11.3224
▁sunny	-11.3224
▁berks	-11.3224
▁passport	-11.3224
▁Sub	-11.3224
▁sidewalk	-11.3225
▁Cried	-11.3225
▁category	-11.3225
▁damn	-11.3225
▁Pink	-11.3225
▁habit	-11.3226
▁breeze	-11.3226
▁Skin	-11.3226
▁501	-11.3226
ersey	-11.3227
▁3-6	-11.3227
halted	-11.3227
▁creative	-11.3227
▁updated	-11.3227
▁cancer	-11.3227
▁boyshort	-11.3228
▁Intern	-11.3228
▁confusing	-11.3229
▁stolen	-11.3229
▁bleed	-11.323
▁dread	-11.3231
▁earth	-11.3231
▁fading	-11.3231
apan	-11.3231
▁Mute	-11.3232
▁failing	-11.3232
eyond	-11.3232
▁resemble	-11.3233
▁consistently	-11.3233
▁Cab	-11.3233
▁Burns	-11.3233
▁snacks	-11.3233
▁errands	-11.3234
▁supplies	-11.3234
▁Carry	-11.3234
▁painless	-11.3235
▁overwhelming	-11.3237
▁relaxing	-11.3238
▁sub	-11.3238
▁prettie	-11.324
▁miss	-11.3241
▁survived	-11.3241
▁vote	-11.3242
▁beloved	-11.3242
▁leaned	-11.3243
▁flatter	-11.3243
▁Sal	-11.3243
▁winner	-11.3244
TSA	-11.3246
munching	-11.3246
▁cla	-11.3248
▁y	-11.3257
▁lowest	-11.3259
▁meeting	-11.3259
▁charm	-11.3261
▁technical	-11.3262
▁mask	-11.3263
▁south	-11.3264
broad	-11.3264
▁NYC	-11.3264
▁naughty	-11.3265
▁OVER	-11.3266
▁windbreaker	-11.3266
▁Michigan	-11.3266
▁shakos	-11.3267
▁replacing	-11.3268
▁smashed	-11.3268
ABLE	-11.3269
▁Army	-11.327
▁Face	-11.3272
▁neatly	-11.3272
▁belongs	-11.3274
▁films	-11.3274
▁shocked	-11.3275
▁Pale	-11.3275
▁relaxed	-11.3276
ottom	-11.3276
▁shut	-11.3278
▁speaking	-11.3279
▁tricky	-11.328
▁posted	-11.328
▁truth	-11.3281
▁upright	-11.3283
▁European	-11.3283
▁flying	-11.3284
▁Aren	-11.3285
oc	-11.3287
▁transmit	-11.3287
▁printing	-11.3287
can	-11.3291
▁complaining	-11.3291
mails	-11.3292
▁irritat	-11.3292
▁warmest	-11.3292
▁climbing	-11.3295
▁sheets	-11.3297
▁asset	-11.3298
Sacs	-11.3299
▁taxed	-11.33
▁testing	-11.33
▁bicycl	-11.3301
▁bandage	-11.3303
▁makers	-11.3304
▁shield	-11.3308
▁sink	-11.3309
▁freez	-11.331
▁separately	-11.3311
▁nails	-11.3315
uffle	-11.3317
▁degrees	-11.3318
▁curly	-11.3318
tumble	-11.3323
▁born	-11.3323
▁famous	-11.3329
▁lavra	-11.3329
ELY	-11.3329
▁SHIRT	-11.333
▁luxury	-11.333
▁Boxer	-11.333
▁delivers	-11.333
▁transparent	-11.333
ew	-11.3332
▁drafted	-11.3332
▁Lastly	-11.3335
▁entirely	-11.3341
▁contents	-11.3346
▁dim	-11.3348
▁fixed	-11.3351
▁WOR	-11.3352
▁palm	-11.3353
3-5	-11.3357
▁CHA	-11.3357
▁walker	-11.3362
▁windy	-11.3368
▁dancer	-11.3369
▁refer	-11.337
▁satisfaction	-11.337
radle	-11.3371
lutter	-11.3375
▁stocking	-11.3381
▁bones	-11.3389
▁loving	-11.339
▁correctly	-11.3394
▁le	-11.3401
▁tr	-11.3403
▁Ple	-11.3405
▁buyers	-11.3413
▁pins	-11.3415
os	-11.3424
▁fl	-11.3429
▁liv	-11.3433
li	-11.3436
▁Wars	-11.3438
▁frames	-11.3439
▁Want	-11.3439
▁smelling	-11.3442
▁serves	-11.3458
▁2.5	-11.3463
▁conscious	-11.3464
▁claims	-11.3468
▁combine	-11.3477
▁har	-11.3478
▁smoothly	-11.349
▁walls	-11.3492
▁lightest	-11.3494
▁sounds	-11.3511
▁butter	-11.3513
▁moments	-11.3513
▁lime	-11.3514
▁bri	-11.3527
non	-11.3529
ANT	-11.3529
▁steps	-11.3529
▁33	-11.353
▁SE	-11.3532
▁combinations	-11.3534
You	-11.3541
▁pace	-11.3572
▁evenings	-11.3574
ying	-11.3578
▁replie	-11.3584
ad	-11.3592
▁rat	-11.3595
▁WHO	-11.3595
▁ITS	-11.3596
ating	-11.3609
▁strings	-11.3637
pposed	-11.3639
▁sweats	-11.3643
AS	-11.3647
▁Nice	-11.3648
▁dye	-11.3652
▁measures	-11.3653
▁PE	-11.3653
▁Contra	-11.3662
itching	-11.3662
iving	-11.367
▁Nipp	-11.3673
fting	-11.3676
most	-11.3686
▁loosely	-11.3688
▁Spi	-11.3688
▁Bag	-11.3689
gg	-11.37
di	-11.3705
▁24.	-11.3705
▁skins	-11.3706
▁PAI	-11.371
▁wonders	-11.3711
asserted	-11.3719
▁discre	-11.372
▁1-	-11.372
▁mats	-11.3724
▁deserve	-11.3732
ier	-11.3734
1.5	-11.3736
▁!!	-11.3743
▁mornings	-11.3751
▁gas	-11.3754
▁na	-11.3757
▁standards	-11.3773
1"	-11.3781
nning	-11.3783
▁events	-11.3787
▁interna	-11.3794
▁garments	-11.3797
INE	-11.3803
▁SAM	-11.3815
▁boxing	-11.3822
▁bla	-11.3838
▁grad	-11.384
glu	-11.3848
▁file	-11.3861
▁buyer	-11.3873
▁5.	-11.3898
ov	-11.3908
▁creat	-11.3909
▁2007	-11.3926
▁Sign	-11.3946
ighten	-11.3947
▁quit	-11.3948
nyone	-11.396
▁nicest	-11.3966
▁ST	-11.3968
nched	-11.3978
▁snapp	-11.3994
▁tanks	-11.3997
etty	-11.3998
▁No	-11.3998
20	-11.4003
▁TH	-11.4013
now	-11.4014
▁happi	-11.4022
▁indicate	-11.4027
▁3.	-11.4028
▁Simpl	-11.4042
ots	-11.4051
ut	-11.4057
lmost	-11.4078
▁La	-11.4091
▁matters	-11.4093
-4	-11.4106
▁calls	-11.4119
▁EVE	-11.4144
▁eliminate	-11.4153
▁Ri	-11.4176
ching	-11.4236
▁presents	-11.4237
IND	-11.4255
▁Su	-11.4263
▁8)	-11.4264
?!	-11.4268
how	-11.4273
▁spin	-11.4273
unning	-11.4277
round	-11.428
He	-11.4285
▁NA	-11.4286
▁Garter	-11.4318
▁Fro	-11.4346
tro	-11.4351
▁ri	-11.4358
▁BET	-11.437
bb	-11.4373
ag	-11.4382
▁possib	-11.4383
▁heavi	-11.4389
▁judg	-11.4392
▁inter	-11.4402
ending	-11.4423
▁toss	-11.4423
▁judge	-11.4442
ley	-11.445
will	-11.4477
▁Wis	-11.4481
dom	-11.4499
hipment	-11.4507
lor	-11.4516
ho	-11.4516
▁user	-11.4517
▁fri	-11.4519
short	-11.4531
▁dead	-11.4548
while	-11.4558
▁Won	-11.4562
▁shy	-11.4578
ba	-11.4578
▁des	-11.458
ALL	-11.4599
▁21	-11.4616
▁hell	-11.4652
about	-11.4671
uated	-11.4672
ised	-11.4678
An	-11.4691
▁sw	-11.4716
ph	-11.4732
lb	-11.4743
rance	-11.4755
ink	-11.4757
▁$13	-11.4773
▁sellers	-11.4789
▁recognize	-11.4795
▁dull	-11.4797
▁pp	-11.4806
eedless	-11.4821
only	-11.4829
lo	-11.4833
aking	-11.4838
ased	-11.4844
25	-11.4856
ingly	-11.4859
▁till	-11.4865
▁Tore	-11.4873
▁ar	-11.4886
feel	-11.4887
▁catch	-11.4889
▁Shirt	-11.4918
▁associate	-11.4919
▁vs	-11.4928
▁flex	-11.4939
▁27	-11.4952
▁Ca	-11.4971
sided	-11.4979
▁winters	-11.4981
▁nights	-11.4992
▁sens	-11.5034
▁law	-11.5036
nal	-11.5041
▁Life	-11.5065
▁Ra	-11.5082
cal	-11.5092
▁restrict	-11.5096
without	-11.5099
soft	-11.5104
▁advance	-11.511
different	-11.5127
RE	-11.5161
pers	-11.5162
.......	-11.5164
▁Hi	-11.517
doesn	-11.5201
come	-11.5204
▁Bon	-11.5209
▁gr	-11.5216
aring	-11.5217
had	-11.5218
▁Gla	-11.5222
▁DE	-11.5225
cotton	-11.5233
walking	-11.5234
cted	-11.5241
girl	-11.5271
▁$15	-11.5273
rade	-11.5277
nne	-11.5278
cool	-11.5283
ane	-11.5289
▁bigge	-11.5299
▁assum	-11.5302
!"	-11.5308
▁En	-11.531
▁wearer	-11.5318
heavy	-11.5328
baby	-11.5332
une	-11.5333
thank	-11.5338
casual	-11.5352
away	-11.5363
RY	-11.5373
ox	-11.5373
▁Thin	-11.5383
THEY	-11.5403
CA	-11.5408
▁fro	-11.5409
▁Me	-11.5409
constructed	-11.541
▁RE	-11.5411
▁challenge	-11.5413
conscious	-11.5418
grey	-11.542
calf	-11.5421
ground	-11.5424
baggy	-11.5425
country	-11.5425
Buy	-11.5429
picking	-11.5434
board	-11.5435
Key	-11.5435
sheer	-11.5443
rigid	-11.5445
purpose	-11.5446
shaped	-11.545
ug	-11.5453
Oh	-11.5459
▁bulg	-11.5459
▁scar	-11.5464
leg	-11.5471
laying	-11.5475
typical	-11.5476
standard	-11.5476
erman	-11.5504
AM	-11.5528
▁pan	-11.5529
▁deliver	-11.5529
ven	-11.5539
cu	-11.5578
ssel	-11.5589
▁sight	-11.5591
▁28	-11.5593
▁fo	-11.5595
▁(4	-11.5604
▁rag	-11.5607
▁impression	-11.5609
▁Sleeve	-11.5618
▁accent	-11.5623
▁connection	-11.5625
▁mountain	-11.5627
▁trouser	-11.5628
cause	-11.5629
▁corner	-11.563
▁agent	-11.5632
▁cuff	-11.5633
pped	-11.564
▁drive	-11.5647
▁pill	-11.5659
custom	-11.566
▁THIN	-11.5665
▁Dan	-11.5669
▁contain	-11.567
▁bow	-11.5672
anna	-11.5676
IGHT	-11.5679
co	-11.5698
▁exist	-11.5702
▁confirm	-11.5702
▁resolve	-11.5702
▁alter	-11.5706
▁delight	-11.5707
▁DAY	-11.5709
▁spray	-11.571
▁thrill	-11.5711
▁sheet	-11.5718
▁ITEM	-11.5719
▁discontinue	-11.5719
▁SHOE	-11.572
▁birth	-11.572
▁grocer	-11.5721
▁frustrat	-11.5721
▁Except	-11.5721
▁physical	-11.5721
NORM	-11.5721
▁Adorable	-11.5721
▁Apparently	-11.5721
▁Astray	-11.5721
▁Athletic	-11.5721
▁Consequently	-11.5721
▁Dearfoam	-11.5721
▁FOUR	-11.5721
▁Fabulous	-11.5721
▁Fashion	-11.5721
▁February	-11.5721
▁Furthermore	-11.5721
▁Intima	-11.5721
▁LEATHER	-11.5721
▁Nonetheless	-11.5721
▁PDA	-11.5721
▁Secret	-11.5721
▁Stephanie	-11.5721
▁WONDERFUL	-11.5721
▁Warmbats	-11.5721
▁approximate	-11.5721
▁aspect	-11.5721
▁catalogue	-11.5721
▁certificate	-11.5721
▁destroy	-11.5721
▁electric	-11.5721
▁electronic	-11.5721
▁forewarned	-11.5721
▁graphics	-11.5721
▁guayabera	-11.5721
▁immensely	-11.5721
▁interfere	-11.5721
▁jockstrap	-11.5721
▁orthotics	-11.5721
▁puddles	-11.5721
▁reflect	-11.5721
▁register	-11.5721
▁sandwich	-11.5721
▁substitute	-11.5721
▁telephone	-11.5721
▁tournament	-11.5721
▁unobtrusive	-11.5721
▁vantage	-11.5721
▁versatility	-11.5721
▁wriggl	-11.5721
▁Comfortech	-11.5721
▁IPOD	-11.5721
▁Sportsman	-11.5721
▁WALK	-11.5721
▁ashamed	-11.5721
▁captors	-11.5721
▁conceal	-11.5721
▁grandmother	-11.5721
▁lymph	-11.5721
▁12-14	-11.5721
▁Davis	-11.5721
▁London	-11.5721
▁Next	-11.5721
▁budget	-11.5721
▁eggs	-11.5721
▁smudge	-11.5721
▁subvert	-11.5721
▁BOOT	-11.5721
▁Penny	-11.5721
▁BEWARE	-11.5721
▁disagree	-11.5721
▁mechanism	-11.5721
▁knife	-11.5721
▁friction	-11.5721
▁heartfelt	-11.5721
▁Nordstrom	-11.5721
▁Until	-11.5721
▁necessities	-11.5721
▁sinuous	-11.5721
▁$$	-11.5721
▁SUPER	-11.5721
▁Strong	-11.5721
▁neighborhood	-11.5721
Indigo	-11.5721
▁memories	-11.5721
▁exposure	-11.5721
▁margin	-11.5721
▁overseas	-11.5721
▁session	-11.5721
NTO	-11.5721
▁modern	-11.5721
▁stoppage	-11.5721
▁Canals	-11.5721
▁liquid	-11.5721
▁recreational	-11.5722
▁Sofa	-11.5722
▁nightmare	-11.5722
▁false	-11.5722
▁honest	-11.5722
▁shoelaces	-11.5722
▁urge	-11.5722
▁horrid	-11.5722
▁buzz	-11.5722
▁Company	-11.5722
▁bullet	-11.5722
▁renting	-11.5722
▁volume	-11.5722
apanese	-11.5722
▁valuable	-11.5722
▁defective	-11.5722
▁teenage	-11.5722
▁leakage	-11.5722
▁Parties	-11.5722
▁client	-11.5722
▁Nail	-11.5722
▁LOL	-11.5722
▁Spandex	-11.5722
▁peace	-11.5722
▁FOREVER	-11.5722
▁gentlemen	-11.5722
▁Deane	-11.5722
▁gentleman	-11.5722
▁score	-11.5722
▁rulers	-11.5722
▁attire	-11.5722
▁WORN	-11.5722
▁flashlight	-11.5722
▁continuous	-11.5722
▁BIG	-11.5722
▁Shame	-11.5722
▁welcome	-11.5722
▁FISH	-11.5722
▁cheese	-11.5722
▁WOW	-11.5722
▁motion	-11.5722
▁approve	-11.5722
▁reek	-11.5723
▁BAG	-11.5723
▁honey	-11.5723
▁Pray	-11.5723
▁muddy	-11.5723
▁August	-11.5723
▁colourful	-11.5723
▁Actually	-11.5723
▁FAR	-11.5723
▁generation	-11.5723
▁fooled	-11.5723
▁River	-11.5723
▁lawless	-11.5723
▁;-)	-11.5724
▁preference	-11.5724
▁Luckily	-11.5724
▁nearby	-11.5724
▁alright	-11.5724
▁BOUGHT	-11.5724
▁shining	-11.5724
▁SHE	-11.5724
▁$29.99	-11.5724
▁cramped	-11.5724
▁pearl	-11.5724
▁stitches	-11.5724
▁warned	-11.5724
▁6-8	-11.5725
▁clever	-11.5725
▁indeed	-11.5725
▁clearance	-11.5725
▁quarter	-11.5725
▁recovery	-11.5725
▁Originally	-11.5726
▁squeaking	-11.5726
▁Badly	-11.5726
▁panted	-11.5726
▁Grown	-11.5726
▁505	-11.5726
▁rainboots	-11.5726
▁4-6	-11.5726
▁majority	-11.5726
Chief	-11.5726
▁Mob	-11.5727
▁travelling	-11.5727
▁Crime	-11.5727
▁orthod	-11.5727
▁economical	-11.5728
elieve	-11.5728
▁Bandy	-11.5728
▁location	-11.5728
▁witness	-11.5729
▁5'7"	-11.5729
▁rash	-11.573
▁lake	-11.5732
▁organizer	-11.5732
▁THERE	-11.5732
▁studies	-11.5732
▁shaping	-11.5732
▁underpants	-11.5732
▁exceeded	-11.5732
▁Brook	-11.5732
▁SON	-11.5732
earless	-11.5733
▁Amazing	-11.5733
▁Scout	-11.5733
▁recorder	-11.5733
▁hello	-11.5734
▁drooping	-11.5734
▁scene	-11.5736
-34	-11.5736
▁patient	-11.5736
▁cream	-11.5737
▁tickets	-11.5737
▁Recently	-11.5738
▁farmers	-11.5738
▁liners	-11.5739
CELL	-11.5739
▁divided	-11.574
▁gaucho	-11.5741
▁contained	-11.5741
▁sprayed	-11.5741
▁confirmed	-11.5741
▁resolved	-11.5741
waisted	-11.5742
▁fishing	-11.5743
Diam	-11.5745
isrepresentation	-11.5746
ern	-11.5746
▁Recommended	-11.5747
▁flexed	-11.5747
▁lame	-11.5747
▁tolerate	-11.5748
▁operate	-11.5748
▁Tic	-11.575
▁creamy	-11.575
▁snapping	-11.575
▁containing	-11.5751
▁Simple	-11.5751
▁converted	-11.5752
ony	-11.5752
▁carpet	-11.5752
▁planned	-11.5753
flapping	-11.5755
TRE	-11.5755
▁daring	-11.5755
▁1100	-11.5756
▁frayed	-11.5757
▁beading	-11.5757
▁CUS	-11.5757
▁slowly	-11.5759
▁10.5	-11.5761
▁salons	-11.5762
kitty	-11.5764
▁younger	-11.5765
▁fails	-11.5766
▁Consider	-11.5769
▁output	-11.577
▁escap	-11.577
▁stride	-11.5771
▁Robe	-11.5772
▁LIGHT	-11.5773
▁FLA	-11.5774
▁harm	-11.5775
nox	-11.5776
▁located	-11.5776
▁bosom	-11.5776
▁BRA	-11.5777
▁master	-11.5777
▁4600	-11.5777
▁fight	-11.5777
740	-11.5777
▁jingle	-11.5777
▁Second	-11.5777
▁whim	-11.578
▁buds	-11.5782
ERRY	-11.5783
▁route	-11.5783
▁stained	-11.5783
▁Mc	-11.5785
▁flood	-11.5785
▁Strap	-11.5786
▁trainer	-11.5788
▁undress	-11.5789
there	-11.5789
▁creases	-11.5791
raw	-11.5791
▁mixed	-11.5791
▁spell	-11.5793
▁Plan	-11.5793
▁respond	-11.5795
▁solve	-11.5798
▁united	-11.5802
ransport	-11.5803
▁fuss	-11.5803
▁donn	-11.5803
▁plate	-11.5804
▁Har	-11.5812
▁kicked	-11.5812
▁pills	-11.5813
▁hint	-11.5813
ngry	-11.5814
▁somehow	-11.5816
▁weighed	-11.5819
▁building	-11.582
▁fastened	-11.582
▁connections	-11.5821
▁wires	-11.5826
▁stress	-11.5831
ohn	-11.5835
▁agents	-11.5835
PLE	-11.5838
70	-11.584
rank	-11.5842
▁95	-11.5843
▁trails	-11.5845
▁baker	-11.5846
▁decades	-11.5849
▁defects	-11.5849
▁Stars	-11.5849
▁42	-11.5856
▁accurately	-11.586
▁34"	-11.5861
▁scratching	-11.5862
ATE	-11.5875
ide	-11.5876
▁intend	-11.5879
CR	-11.5882
▁flo	-11.5883
06	-11.5888
▁Nurs	-11.5892
theless	-11.5895
▁boxes	-11.59
lly	-11.5901
▁HERE	-11.5902
▁mild	-11.5904
▁deduce	-11.5905
▁indoors	-11.5905
▁Mamma	-11.5911
▁outlets	-11.5914
▁packet	-11.5917
▁needless	-11.5919
▁AB	-11.5922
ride	-11.5923
▁appealing	-11.5926
HAS	-11.5927
▁limits	-11.5931
▁triang	-11.5933
▁FIRM	-11.5933
▁nephews	-11.5934
▁pile	-11.5935
▁cycle	-11.5942
ntend	-11.5948
▁gate	-11.5948
▁Tops	-11.5949
▁Tax	-11.5958
▁adore	-11.5959
nsing	-11.5968
mature	-11.5969
▁wine	-11.5979
▁35	-11.5982
tribut	-11.5982
cade	-11.5983
aft	-11.5988
▁guest	-11.599
ankee	-11.5993
▁lying	-11.5993
▁cl	-11.6004
▁Al	-11.601
▁increase	-11.6011
WO	-11.6017
▁shrinking	-11.6022
▁wax	-11.6028
▁god	-11.6029
▁tearing	-11.6034
ennies	-11.6038
ic	-11.6042
▁Use	-11.6045
▁closely	-11.605
late	-11.6062
▁camisoles	-11.6077
▁pressed	-11.608
▁backing	-11.6081
112	-11.6088
▁divide	-11.6093
!!!!!!	-11.6097
▁fills	-11.6108
orrow	-11.6122
ular	-11.6124
arm	-11.6131
▁services	-11.6133
earing	-11.6137
▁blu	-11.614
▁scales	-11.6159
AY	-11.617
ay	-11.6175
▁kicks	-11.6179
▁worker	-11.6183
▁Butt	-11.6184
▁indicati	-11.6189
risk	-11.6191
▁casually	-11.6192
ames	-11.6196
bbing	-11.6198
▁narrowed	-11.6218
mobile	-11.6229
▁lesson	-11.6233
▁spit	-11.6238
ump	-11.6241
▁cat	-11.6257
▁sup	-11.6258
ip	-11.626
▁CON	-11.6271
custome	-11.6304
▁wipe	-11.6312
▁Washing	-11.6316
▁availab	-11.632
uture	-11.6328
▁cra	-11.6336
▁lifts	-11.6338
ify	-11.6346
shoot	-11.6355
▁Gr	-11.6356
▁compromise	-11.6363
THING	-11.6363
▁Trap	-11.6366
yard	-11.6367
▁mothers	-11.6376
▁admire	-11.6376
▁winds	-11.6376
▁grin	-11.6395
▁trie	-11.6431
▁injur	-11.6434
▁Lat	-11.6434
▁12.	-11.6434
▁patterns	-11.6443
▁Regard	-11.6444
ore	-11.6452
ification	-11.6456
▁song	-11.6463
ndex	-11.6475
▁stops	-11.6479
ss	-11.6485
any	-11.6489
▁returns	-11.6494
▁tw	-11.65
▁Appl	-11.65
ially	-11.6502
▁Whe	-11.6504
ample	-11.6513
OSE	-11.6526
oke	-11.654
PH	-11.6548
mon	-11.655
nside	-11.6551
▁expedi	-11.6559
rk	-11.6565
▁Paris	-11.6586
▁EN	-11.6593
requiring	-11.6595
read	-11.66
▁stat	-11.6605
▁arrives	-11.6611
ie	-11.6615
dy	-11.6622
▁Bo	-11.6639
▁sisters	-11.6639
▁cor	-11.6647
shoes	-11.6657
strain	-11.6667
▁SAY	-11.6667
▁paint	-11.6679
lightest	-11.6684
▁ships	-11.6694
LC	-11.6712
rea	-11.6744
▁2-	-11.6745
▁endur	-11.676
▁heeled	-11.677
cious	-11.6786
▁include	-11.6792
30	-11.6793
▁Shak	-11.6794
▁considerabl	-11.68
▁rec	-11.6801
let	-11.681
finitely	-11.6829
ial	-11.6835
ropped	-11.6836
eased	-11.6841
hey	-11.6846
ga	-11.6856
oking	-11.6868
-5	-11.6872
urf	-11.6877
mpact	-11.6896
ping	-11.6901
▁Car	-11.6904
0.00	-11.6911
▁29	-11.693
ack	-11.6938
om	-11.6967
orn	-11.6974
▁net	-11.6976
▁Fir	-11.6984
ster	-11.6995
ange	-11.6997
▁loo	-11.7004
▁bay	-11.7057
▁booty	-11.7084
▁bro	-11.7087
would	-11.7111
▁COU	-11.7127
▁DO	-11.7164
▁experiences	-11.7177
▁Lad	-11.7181
rown	-11.7181
▁nu	-11.719
▁fenc	-11.7193
▁suite	-11.7207
▁MAN	-11.7209
bes	-11.7219
▁sala	-11.7228
▁bead	-11.7239
eat	-11.7244
thin	-11.7282
rising	-11.733
ast	-11.7345
ags	-11.7346
60	-11.7349
▁produc	-11.735
moved	-11.7353
fully	-11.7361
ened	-11.7376
▁0	-11.7382
▁vi	-11.7389
▁sta	-11.7392
ars	-11.7422
▁tri	-11.7438
▁cha	-11.7447
edless	-11.7449
erre	-11.7458
▁code	-11.7477
eal	-11.7478
tacked	-11.7487
tional	-11.7496
uc	-11.7503
II	-11.7507
don	-11.7509
These	-11.7532
sk	-11.7534
arried	-11.7545
necks	-11.7554
▁$22	-11.7579
op	-11.7595
▁Gree	-11.7599
▁TRI	-11.7623
▁Victor	-11.7636
fiance	-11.7649
▁Grand	-11.7656
ons	-11.7659
wa	-11.7661
▁Wor	-11.7724
HOP	-11.7726
▁measur	-11.7727
leaves	-11.7756
rious	-11.776
...........	-11.7764
▁$8	-11.7809
ns	-11.7819
dema	-11.7833
RU	-11.7847
ak	-11.7873
▁!	-11.7899
▁fire	-11.7913
link	-11.7916
rry	-11.7938
▁FEL	-11.7954
▁discern	-11.7967
▁collaps	-11.7967
mo	-11.7981
ings	-11.7984
40	-11.7988
OR	-11.7991
▁cu	-11.7991
▁aim	-11.7999
▁met	-11.8014
▁(3	-11.8018
▁land	-11.8028
▁res	-11.8029
▁exper	-11.8053
nna	-11.8092
▁king	-11.8098
▁respons	-11.8103
aid	-11.811
▁supp	-11.8149
▁hers	-11.8151
dress	-11.8155
izing	-11.816
case	-11.8164
▁remark	-11.8168
▁Uni	-11.8168
better	-11.8175
pt	-11.8186
ber	-11.8197
▁$7	-11.8209
▁experienc	-11.8233
pi	-11.8251
cross	-11.8255
▁carp	-11.8278
best	-11.8285
air	-11.8285
got	-11.8289
▁So	-11.8293
ger	-11.8296
▁SERV	-11.831
early	-11.8315
▁$6	-11.8316
lipped	-11.8326
worn	-11.8331
ans	-11.8333
▁CAR	-11.8342
ways	-11.8354
sing	-11.8378
ow	-11.8383
▁crop	-11.8396
ep	-11.8396
ward	-11.84
table	-11.8404
▁fig	-11.8409
ments	-11.8412
va	-11.8435
▁manag	-11.8439
▁exter	-11.8442
▁beg	-11.8443
When	-11.8452
▁ag	-11.8454
▁UN	-11.8457
meter	-11.846
ursed	-11.8474
mail	-11.8478
his	-11.8485
Thank	-11.8531
piece	-11.8537
fast	-11.8542
those	-11.8546
-2120	-11.8551
going	-11.856
That	-11.8565
joy	-11.8577
fits	-11.8585
room	-11.8589
stuff	-11.8594
▁Fa	-11.8596
Now	-11.8606
phone	-11.8606
brief	-11.8612
ington	-11.8623
Love	-11.8624
wash	-11.8625
Well	-11.8625
idad	-11.863
month	-11.8632
until	-11.8635
NOT	-11.8637
clip	-11.8645
pouch	-11.8646
charge	-11.8646
believe	-11.8656
person	-11.8657
clear	-11.8664
step	-11.8665
TY	-11.8667
▁Dec	-11.8673
▁sash	-11.8675
ton	-11.8678
bad	-11.8678
One	-11.868
trunk	-11.8682
▁$50.	-11.8684
shoulder	-11.8686
class	-11.8686
car	-11.8694
nes	-11.8694
36	-11.8695
key	-11.8695
uffer	-11.87
optional	-11.8704
refund	-11.8713
NO	-11.8716
YOU	-11.8717
store	-11.8717
cycle	-11.8722
▁Rep	-11.8724
▁intern	-11.8725
band	-11.8725
▁kno	-11.8727
Give	-11.8732
buckle	-11.8732
broken	-11.8733
lines	-11.8737
silver	-11.8738
ament	-11.8738
advanced	-11.874
yeah	-11.8742
includ	-11.8743
flop	-11.8745
wool	-11.8746
▁Bar	-11.8748
face	-11.8748
0-3	-11.8748
unlike	-11.8749
▁4-	-11.8749
Black	-11.8749
fitted	-11.8751
BUY	-11.8752
Under	-11.8754
spade	-11.8755
Happy	-11.8755
▁sur	-11.8758
fashioned	-11.8759
-12	-11.8763
FIRM	-11.8768
thou	-11.8768
filled	-11.8771
shrunk	-11.8772
▁insur	-11.8788
weigh	-11.8792
satisfaction	-11.8794
qui	-11.8803
heeled	-11.8807
packed	-11.8808
gressive	-11.8809
along	-11.881
01	-11.8814
RED	-11.8816
ski	-11.8819
hat	-11.8822
ontour	-11.8823
cup	-11.8827
normal	-11.8831
▁dep	-11.8837
▁cal	-11.8837
peak	-11.8839
ade	-11.8842
nch	-11.8845
sually	-11.8852
known	-11.8855
girls	-11.8856
lasting	-11.8859
▁fish	-11.8867
yet	-11.8883
23	-11.8885
▁fla	-11.889
ugging	-11.8893
▁orders	-11.8899
nding	-11.8903
bra	-11.8904
sex	-11.8907
ac	-11.8911
▁HA	-11.8911
solar	-11.8922
born	-11.8927
!!!!!!!!!!!!	-11.8932
▁camp	-11.8932
lined	-11.894
star	-11.8941
▁occur	-11.8941
▁undergarment	-11.8942
rify	-11.8942
▁horse	-11.8944
strings	-11.8949
▁assist	-11.896
BLE	-11.896
▁direction	-11.896
▁victor	-11.8961
▁Slipper	-11.8961
▁birkenstock	-11.8961
▁film	-11.8963
holes	-11.8964
▁patter	-11.8986
")	-11.8987
▁dar	-11.8988
term	-11.8994
▁pat	-11.8995
▁athlete	-11.9002
▁organiz	-11.9002
lighten	-11.9008
.5	-11.9009
▁interest	-11.9009
▁4/	-11.9016
▁crease	-11.902
▁rob	-11.9021
▁German	-11.9022
ugh	-11.9022
▁embarrass	-11.9026
▁mislead	-11.9026
▁lead	-11.9028
▁spark	-11.9028
▁excessive	-11.9029
▁engine	-11.903
▁detach	-11.9032
▁Recent	-11.9032
magine	-11.9034
▁Deliver	-11.9034
▁consistent	-11.9034
▁improve	-11.9034
▁surprising	-11.9034
▁direct	-11.9035
▁stroll	-11.9036
▁advertise	-11.9036
▁crush	-11.9036
▁distance	-11.9038
▁nail	-11.9038
angled	-11.9039
TER	-11.9039
▁exceed	-11.904
▁immediate	-11.9041
▁WHE	-11.9044
merican	-11.9046
▁mode	-11.9048
antic	-11.9048
▁sometime	-11.9049
▁stole	-11.905
▁sooooo	-11.9052
aughter	-11.9053
▁PURCHASE	-11.9053
ustration	-11.9054
▁consist	-11.9054
▁THAN	-11.9054
▁excess	-11.9054
▁horr	-11.9054
▁Certain	-11.9055
▁strateg	-11.9055
PRADA	-11.9055
azzercise	-11.9055
eppelin	-11.9055
luminium	-11.9055
plicate	-11.9055
pologie	-11.9055
▁($1	-11.9055
▁Atlanta	-11.9055
▁Boundaries	-11.9055
▁CHECK	-11.9055
▁COMPLETE	-11.9055
▁COTTON	-11.9055
▁Capezio	-11.9055
▁DRESS	-11.9055
▁Francisco	-11.9055
▁GemAvenue	-11.9055
▁Grangers	-11.9055
▁Hairagami	-11.9055
▁Louboutin	-11.9055
▁MATERIAL	-11.9055
▁MONEY	-11.9055
▁Maidenform	-11.9055
▁Megaride	-11.9055
▁Mountain	-11.9055
▁Necessities	-11.9055
▁Oxford	-11.9055
▁Purple	-11.9055
▁RECEIVED	-11.9055
▁Rostov	-11.9055
▁SHADES	-11.9055
▁SNAP	-11.9055
▁Sponge	-11.9055
▁SubCommandante	-11.9055
▁Superbowl	-11.9055
▁THONG	-11.9055
▁Terrible	-11.9055
▁WARM	-11.9055
▁WHEELS	-11.9055
▁Wrinkle	-11.9055
▁Wrong	-11.9055
▁accomodating	-11.9055
▁acrylic	-11.9055
▁adhesive	-11.9055
▁arthritis	-11.9055
▁assortment	-11.9055
▁balaclava	-11.9055
▁balancing	-11.9055
▁breeches	-11.9055
▁cardiac	-11.9055
▁carousal	-11.9055
▁circumference	-11.9055
▁complicated	-11.9055
▁constricted	-11.9055
▁deceptive	-11.9055
▁desperate	-11.9055
▁dismounted	-11.9055
▁dynamite	-11.9055
▁emergency	-11.9055
▁emphasiz	-11.9055
▁energy	-11.9055
▁episode	-11.9055
▁equipment	-11.9055
▁evidence	-11.9055
▁excitement	-11.9055
▁gauzy	-11.9055
▁horribly	-11.9055
▁identification	-11.9055
▁implies	-11.9055
▁inconsistent	-11.9055
▁ingenious	-11.9055
▁jealous	-11.9055
▁jewel	-11.9055
▁legwarmers	-11.9055
▁leisure	-11.9055
▁lilypad	-11.9055
▁minimizing	-11.9055
▁misshapen	-11.9055
▁phenomena	-11.9055
▁potential	-11.9055
▁predict	-11.9055
▁protrud	-11.9055
▁puberty	-11.9055
▁remote	-11.9055
▁rival	-11.9055
▁sanctioning	-11.9055
▁sensitivity	-11.9055
▁silhouette	-11.9055
▁snowstorm	-11.9055
▁succeed	-11.9055
▁supervisor	-11.9055
▁surpassed	-11.9055
▁unbuttoned	-11.9055
▁unfinished	-11.9055
▁CHANGE	-11.9055
▁Fancy	-11.9055
▁Microfiber	-11.9055
▁Picture	-11.9055
▁Royale	-11.9055
▁gimmick	-11.9055
▁restaurant	-11.9055
▁Hilfiger	-11.9055
▁Limbs	-11.9055
▁approach	-11.9055
▁chafing	-11.9055
▁chemical	-11.9055
▁downpour	-11.9055
▁focus	-11.9055
▁gorges	-11.9055
▁longevity	-11.9055
▁sponge	-11.9055
▁Idaho	-11.9055
▁Serum	-11.9055
▁elbow	-11.9055
▁platform	-11.9055
▁sniff	-11.9055
▁Seattle	-11.9055
▁Underwire	-11.9055
▁perspir	-11.9055
▁pliable	-11.9055
▁reject	-11.9055
▁segment	-11.9055
▁Fantastic	-11.9055
▁private	-11.9055
▁retriev	-11.9055
▁warrant	-11.9055
OUND	-11.9055
▁Problem	-11.9055
▁julie	-11.9055
▁snipped	-11.9055
▁Arbat	-11.9055
▁12-13	-11.9055
▁University	-11.9055
▁Vietnam	-11.9055
▁Trips	-11.9055
▁newspaper	-11.9055
▁Prince	-11.9055
▁ROOM	-11.9055
▁textbook	-11.9055
▁WHITE	-11.9055
▁overpriced	-11.9055
▁stream	-11.9055
▁busier	-11.9055
▁professionalism	-11.9055
▁Funny	-11.9055
▁bidding	-11.9055
▁limitations	-11.9055
▁Satan	-11.9055
▁altogether	-11.9055
▁lodge	-11.9055
▁network	-11.9055
▁featherweight	-11.9055
BDU	-11.9055
▁Marcus	-11.9055
▁Sauc	-11.9055
▁Indeed	-11.9055
▁Series	-11.9055
▁chaff	-11.9055
▁dissatisfied	-11.9055
▁precise	-11.9055
▁$39.99	-11.9055
▁distinctive	-11.9055
▁rapid	-11.9055
▁accompany	-11.9055
▁LAST	-11.9055
▁invention	-11.9055
▁GLAD	-11.9055
▁Vara	-11.9055
▁Eagle	-11.9055
▁Stylish	-11.9055
▁unstable	-11.9055
▁vertical	-11.9055
▁Personally	-11.9055
▁Prior	-11.9055
▁hinders	-11.9055
▁tarso	-11.9055
▁Among	-11.9055
▁WORK	-11.9055
TOM	-11.9055
▁KICK	-11.9055
▁earrings	-11.9055
▁FAVOR	-11.9055
▁Monday	-11.9055
▁SOON	-11.9055
▁reserv	-11.9055
▁thousand	-11.9055
Value	-11.9055
▁assistance	-11.9055
▁educat	-11.9055
▁Wrangled	-11.9055
▁KIND	-11.9055
▁hung	-11.9055
▁WEEKS	-11.9055
▁frenchman	-11.9055
▁police	-11.9055
▁james	-11.9055
▁fibres	-11.9055
▁innocence	-11.9055
▁mileage	-11.9055
▁stripped	-11.9055
▁5'5"	-11.9055
▁Mexico	-11.9055
▁extension	-11.9055
▁driveway	-11.9055
▁midnight	-11.9055
▁blaine	-11.9055
▁leech	-11.9055
▁nonetheless	-11.9055
▁LARGER	-11.9055
holic	-11.9055
▁TOP	-11.9055
▁bulb	-11.9055
▁05	-11.9056
▁naval	-11.9056
oysenberry	-11.9056
▁lipstick	-11.9056
▁communication	-11.9056
▁spirit	-11.9056
▁Generally	-11.9056
▁zapat	-11.9056
▁Warning	-11.9056
▁curious	-11.9056
▁snowboard	-11.9056
▁Feet	-11.9056
▁pashmina	-11.9056
▁motor	-11.9056
▁Shopping	-11.9056
▁Sister	-11.9056
▁bustling	-11.9056
▁Outfitter	-11.9056
▁PURCHASED	-11.9056
▁Knell	-11.9056
▁SOME	-11.9056
▁nature	-11.9056
▁eleven	-11.9056
▁quiet	-11.9056
▁blind	-11.9056
▁OFF	-11.9056
▁latch	-11.9057
▁BRAND	-11.9057
▁retainers	-11.9057
uberan	-11.9057
▁1990	-11.9057
▁CARS	-11.9057
PPER	-11.9057
▁DIED	-11.9057
▁Trading	-11.9057
▁league	-11.9057
▁inventor	-11.9057
▁irritation	-11.9057
▁bridge	-11.9057
VEL	-11.9057
▁Luck	-11.9057
▁Victoria	-11.9058
▁Speedos	-11.9058
▁distributor	-11.9058
ACH	-11.9058
▁GOWN	-11.9058
▁nuts	-11.9058
▁SEE	-11.9058
▁Disappointed	-11.9058
▁instructor	-11.9058
▁8-10	-11.9059
▁$10.00	-11.9059
neath	-11.9059
▁PERFECTLY	-11.9059
▁snatched	-11.9059
▁ribbon	-11.9059
▁passion	-11.9059
▁depicted	-11.9059
▁EAS	-11.9059
▁Thankfully	-11.9059
▁french	-11.9059
▁peeling	-11.9059
▁teach	-11.9059
▁exclusively	-11.906
▁fellow	-11.906
▁stink	-11.906
acket	-11.906
▁informal	-11.906
▁toilet	-11.906
uary	-11.906
▁convey	-11.906
▁tailing	-11.9061
▁bedtime	-11.9061
▁organize	-11.9061
▁fragile	-11.9061
▁regardless	-11.9061
▁5'8"	-11.9061
▁butterfly	-11.9062
▁mainland	-11.9062
▁outrage	-11.9062
▁relieve	-11.9062
▁Liking	-11.9062
▁rotated	-11.9062
ude	-11.9063
KS	-11.9063
▁fantas	-11.9063
▁gained	-11.9063
▁PRODUCTS	-11.9063
▁separating	-11.9063
▁instance	-11.9063
TF	-11.9064
▁paperback	-11.9064
▁regain	-11.9064
▁flogging	-11.9064
▁insulated	-11.9064
mulate	-11.9065
▁defeat	-11.9066
7-8	-11.9066
▁Again	-11.9066
▁task	-11.9066
▁4.5	-11.9067
▁variation	-11.9067
▁removal	-11.9067
▁drain	-11.9067
▁usage	-11.9069
▁instantly	-11.9069
▁comfortability	-11.9069
▁Down	-11.907
▁slave	-11.907
▁sample	-11.907
▁stonewash	-11.9071
▁inspired	-11.9072
▁justified	-11.9072
▁stiffness	-11.9074
▁spike	-11.9075
▁strolled	-11.9075
▁Design	-11.9075
▁REI	-11.9076
▁incidentally	-11.9077
▁Cards	-11.9077
▁slopes	-11.9077
▁organi	-11.9077
committed	-11.9078
▁alterations	-11.9078
▁faut	-11.9079
▁Oily	-11.9079
ISH	-11.9079
▁requirements	-11.9079
▁engineer	-11.9079
▁summertime	-11.908
▁baggage	-11.908
▁lightning	-11.9081
▁105	-11.9081
▁Sharp	-11.9083
▁mad	-11.9083
▁relax	-11.9083
▁bride	-11.9084
▁utilit	-11.9086
▁rabb	-11.9086
HIS	-11.9087
▁element	-11.9087
▁teacher	-11.909
▁audi	-11.909
▁cage	-11.9091
▁scared	-11.9092
▁twent	-11.9093
▁deni	-11.9094
▁stance	-11.9096
▁Cur	-11.9097
ue	-11.9097
▁honesty	-11.9097
▁Ultimate	-11.9097
▁stamp	-11.9097
argain	-11.9098
▁reality	-11.9099
LESS	-11.9099
▁Clear	-11.9099
▁ratio	-11.9099
▁san	-11.9101
▁Help	-11.9103
▁reputa	-11.9104
▁mood	-11.9104
▁Force	-11.9104
lic	-11.9108
Money	-11.911
▁cars	-11.9112
▁cosy	-11.9112
▁birds	-11.9112
▁curved	-11.9113
▁flatten	-11.9114
▁gun	-11.9115
▁repeatedly	-11.9116
▁afterwards	-11.9117
▁(5	-11.9117
▁Comb	-11.9117
▁brain	-11.9117
▁Stain	-11.9117
▁Gardens	-11.9118
▁Kings	-11.912
▁cr	-11.9122
▁forgiv	-11.9122
▁fortunately	-11.9122
▁stairs	-11.9122
▁balanced	-11.9124
▁Older	-11.9125
▁advised	-11.9125
▁roman	-11.9125
▁fearlessly	-11.9125
manhood	-11.9126
▁UGG	-11.9127
▁$70	-11.9131
▁THANK	-11.9131
▁Okay	-11.9131
▁shifting	-11.9131
sexual	-11.9132
▁glass	-11.9132
▁garden	-11.9132
▁pronated	-11.9134
▁Neck	-11.9134
▁shampoo	-11.9134
▁program	-11.9135
▁Gigaride	-11.9135
▁cardboard	-11.9137
!!!!!!!!	-11.9137
▁critic	-11.9138
▁notorious	-11.9138
▁mailbox	-11.9138
▁tomorrow	-11.9139
▁trait	-11.9139
stop	-11.9139
▁wandering	-11.9141
▁centered	-11.9141
▁MAKE	-11.9142
▁reg	-11.9142
▁qualif	-11.9143
▁davi	-11.9143
▁sideways	-11.9144
▁imitation	-11.9144
▁peter	-11.9144
yarn	-11.9145
▁estimated	-11.9145
▁Remov	-11.9147
▁strict	-11.9147
▁dusty	-11.9149
▁splints	-11.9151
nio	-11.9154
▁touches	-11.9154
▁gasp	-11.9154
▁crushed	-11.9155
▁heavyweight	-11.9155
▁Pain	-11.9155
▁camps	-11.9157
▁pinched	-11.9157
▁Ol	-11.9158
▁Marke	-11.916
▁Chin	-11.9161
▁quot	-11.9163
▁goose	-11.9165
▁BAD	-11.9165
▁hunter	-11.9169
▁;)	-11.9174
▁offensive	-11.9175
▁painted	-11.9176
▁attaches	-11.918
▁moon	-11.9181
yer	-11.9184
▁stage	-11.9186
▁backside	-11.9187
35	-11.9189
▁oak	-11.919
▁aesthetic	-11.9191
▁charging	-11.9193
▁mus	-11.9196
▁enable	-11.9196
▁braz	-11.9199
▁Sleeves	-11.92
▁qual	-11.9202
▁Summ	-11.9203
▁stone	-11.9203
▁bows	-11.9203
▁99	-11.9209
▁AD	-11.9209
▁drives	-11.921
▁crim	-11.9211
▁production	-11.9213
buk	-11.9216
▁twisted	-11.9218
▁SURE	-11.922
▁5'4	-11.9221
▁STAR	-11.9222
tible	-11.9229
▁indicates	-11.923
▁tire	-11.9232
▁flaws	-11.9233
ARD	-11.9236
▁110	-11.9236
▁HATE	-11.9237
▁frost	-11.9238
town	-11.9238
▁es	-11.9239
▁Kayanos	-11.9241
▁Rush	-11.9242
▁belong	-11.9243
▁anti	-11.9243
ified	-11.9243
▁longest	-11.9244
▁border	-11.9247
EST	-11.9248
▁scars	-11.925
▁sto	-11.9251
▁secret	-11.9258
▁WEIGHT	-11.9259
▁Yeah	-11.9259
▁tying	-11.9262
▁angles	-11.9269
lust	-11.9269
▁wrists	-11.927
partment	-11.9271
▁cho	-11.9273
▁repairs	-11.9274
▁tubes	-11.9281
▁groove	-11.9291
▁flows	-11.9293
▁safely	-11.9301
▁whites	-11.9302
ANK	-11.9309
eading	-11.9317
▁handled	-11.9319
▁BB	-11.9321
▁..	-11.9322
▁clouds	-11.9323
▁heals	-11.9324
▁users	-11.9329
▁award	-11.933
▁ABSOLUTE	-11.9337
resting	-11.9348
69	-11.9352
▁tonight	-11.9352
▁soil	-11.9353
▁compass	-11.9358
▁brows	-11.9358
▁Cont	-11.9358
▁5:	-11.9359
▁whi	-11.9364
▁member	-11.9365
▁union	-11.9367
OOO	-11.9368
▁flop	-11.937
▁justice	-11.9377
imb	-11.9381
▁moss	-11.9383
▁RED	-11.9384
▁locking	-11.9388
MAN	-11.9393
▁input	-11.9399
▁wild	-11.9403
▁regards	-11.9407
stand	-11.9413
▁Thre	-11.9415
▁resign	-11.943
▁Him	-11.9431
atural	-11.9437
▁belie	-11.9441
cky	-11.9446
have	-11.9446
▁hairy	-11.9448
▁kits	-11.9455
▁receiver	-11.9457
LING	-11.9461
cul	-11.9464
▁waterproofing	-11.9467
UFF	-11.947
name	-11.9472
▁widest	-11.9475
▁Ras	-11.9475
EAL	-11.9475
.........	-11.9487
▁plugg	-11.9488
compare	-11.9489
▁BAR	-11.9492
UT	-11.9493
main	-11.95
▁Kn	-11.951
▁Wa	-11.9515
sure	-11.9521
▁$5.9	-11.9532
????	-11.9533
▁bold	-11.9543
ackage	-11.9557
▁Soon	-11.9563
▁END	-11.9572
▁spill	-11.9574
earned	-11.9577
▁mu	-11.9579
▁MAR	-11.9587
▁pools	-11.9587
ET	-11.9592
inding	-11.9606
rate	-11.9612
OB	-11.9614
ole	-11.9616
▁appearances	-11.9618
300	-11.9623
bi	-11.9625
▁fairy	-11.9632
▁obs	-11.9634
▁spa	-11.964
▁continu	-11.9644
HERE	-11.9647
▁table	-11.9647
▁essentials	-11.9658
▁gain	-11.9665
aud	-11.967
olts	-11.9681
als	-11.9683
▁clo	-11.9683
▁Patri	-11.9683
▁army	-11.9688
ridge	-11.9691
▁die	-11.9692
▁streets	-11.9693
ters	-11.9706
▁Sides	-11.9707
-24	-11.9709
AR	-11.9719
▁8"	-11.9722
▁gla	-11.973
OSS	-11.9733
told	-11.9738
▁12-	-11.974
▁movements	-11.9744
▁lit	-11.9747
▁keeper	-11.9751
▁readi	-11.9762
test	-11.9765
imum	-11.978
▁Ke	-11.9788
.(	-11.9792
▁soul	-11.9798
▁collars	-11.9799
▁cushions	-11.9803
▁BAND	-11.9804
▁realiz	-11.9812
ELL	-11.9818
emed	-11.9826
nger	-11.9833
▁0-	-11.9834
vil	-11.9842
easonable	-11.9855
▁alternate	-11.9858
▁lessen	-11.9863
▁bang	-11.9873
▁costly	-11.9876
▁blo	-11.9889
▁bi	-11.9889
ni	-11.9893
▁Brit	-11.9902
▁$11	-11.9911
▁corporat	-11.9916
"--	-11.9918
▁conver	-11.9935
ining	-11.9946
▁serv	-11.9951
DAYS	-11.9959
▁Pat	-11.9966
coming	-11.997
tall	-11.9977
▁sorts	-11.9979
AN	-11.9986
▁STA	-11.9987
obb	-11.9991
▁shel	-11.9995
▁logs	-11.9998
reacher	-12.0007
▁appl	-12.0007
▁restricti	-12.0035
▁ge	-12.0039
▁tune	-12.0064
▁exercises	-12.0076
iz	-12.0084
▁gage	-12.0096
UM	-12.0131
▁Ba	-12.0132
shi	-12.0132
▁rose	-12.0134
dispose	-12.0135
ud	-12.0136
!!!!!!!!!!!!!!!!	-12.0151
leash	-12.0154
alloween	-12.016
eel	-12.0163
▁weighted	-12.0181
ou	-12.0183
Its	-12.021
reat	-12.0212
▁She	-12.0214
fill	-12.0217
rel	-12.0218
▁lin	-12.0218
ighly	-12.0222
▁mock	-12.0222
NCE	-12.0226
eth	-12.0235
▁employ	-12.0236
lph	-12.0237
allow	-12.0242
▁mis	-12.0249
90	-12.0265
▁trop	-12.0267
▁$9.	-12.0272
OW	-12.0284
▁detect	-12.029
▁associat	-12.029
racking	-12.0295
▁Ally	-12.0297
▁bus	-12.0306
▁backorder	-12.032
pier	-12.0335
iff	-12.0363
accurac	-12.0364
▁27.	-12.0381
▁matche	-12.0387
ainbow	-12.0388
▁$14	-12.0392
▁pursu	-12.0404
▁toys	-12.0414
▁engage	-12.0418
rading	-12.0425
elle	-12.043
olid	-12.0431
▁wound	-12.044
Fling	-12.0442
vation	-12.0477
ado	-12.0477
izab	-12.0487
...)	-12.0489
lap	-12.049
▁$90	-12.0494
▁norm	-12.0497
mos	-12.0526
▁HO	-12.0536
▁ages	-12.0548
▁Med	-12.0551
easy	-12.0553
▁sleeps	-12.0558
▁Cl	-12.0571
▁Styl	-12.0572
▁Rich	-12.0575
IT	-12.0579
▁Dur	-12.0603
form	-12.064
giv	-12.0641
▁el	-12.0648
ends	-12.0649
▁players	-12.066
ARR	-12.0661
▁enca	-12.0668
▁fir	-12.072
ple	-12.0721
▁chew	-12.0744
tress	-12.075
▁compa	-12.0765
▁hall	-12.077
▁cos	-12.0792
ock	-12.0793
▁Mor	-12.08
▁$22.	-12.0816
▁$45	-12.0819
4.99	-12.0823
FUL	-12.0828
▁si	-12.0847
▁5'1	-12.0849
▁sm	-12.0851
ime	-12.0852
▁exa	-12.0864
onclusion	-12.0902
ev	-12.0925
oon	-12.0928
Mad	-12.0933
ired	-12.0947
cons	-12.0948
▁21.	-12.0957
▁Pr	-12.0959
▁Fl	-12.097
9.90	-12.0979
"!	-12.1
▁WH	-12.1001
▁comp	-12.1001
ordering	-12.1005
▁pok	-12.1006
hy	-12.102
ake	-12.1022
▁indicat	-12.1032
▁travels	-12.1035
elf	-12.1049
▁thirt	-12.1053
▁contribut	-12.1062
▁PI	-12.1071
▁Barri	-12.1072
using	-12.1094
etro	-12.1096
rely	-12.1104
rankly	-12.1113
▁election	-12.1121
▁mal	-12.1141
▁CO	-12.1148
▁Ch	-12.1161
▁wake	-12.1163
▁NF	-12.1172
ried	-12.1175
ears	-12.1188
opt	-12.1218
▁frag	-12.1234
▁pi	-12.1243
erry	-12.128
▁198	-12.1281
▁reduc	-12.1285
ui	-12.1291
ubs	-12.1303
annel	-12.1332
hats	-12.1342
▁9.	-12.1359
lifting	-12.1378
dder	-12.1379
▁lights	-12.1387
▁Sa	-12.1387
Le	-12.1388
tar	-12.1393
▁Wh	-12.1396
mous	-12.1405
mmed	-12.1412
tful	-12.1413
▁Bee	-12.1414
▁Pres	-12.1421
▁frank	-12.1425
URT	-12.1438
ANY	-12.1461
sole	-12.1471
▁22.	-12.1513
unner	-12.1513
lac	-12.1519
▁su	-12.1528
love	-12.1528
▁gu	-12.1528
look	-12.1532
▁Pill	-12.1534
tches	-12.1546
7)	-12.1559
gged	-12.1579
put	-12.1586
▁jobs	-12.1603
9.99.	-12.1605
NK	-12.1605
rab	-12.1611
ves	-12.1612
sed	-12.1616
uckily	-12.1639
tile	-12.1674
▁MES	-12.1676
were	-12.1685
▁struggl	-12.1693
ening	-12.1702
worthy	-12.1705
92	-12.1726
ight	-12.1737
▁Nat	-12.1741
▁eliminat	-12.1742
▁melt	-12.1743
really	-12.1744
da	-12.1744
▁gene	-12.1745
ual	-12.1756
75	-12.1759
▁tub	-12.1793
▁1/2.	-12.1798
▁gran	-12.181
ered	-12.1814
ngs	-12.1821
shoe	-12.1837
▁GI	-12.1876
little	-12.1876
▁Sing	-12.1878
pen	-12.1904
rying	-12.191
dies	-12.1911
tt	-12.1913
boxerbrief	-12.1921
▁199	-12.1921
-1/2	-12.1925
lot	-12.1933
rider	-12.1943
▁Ru	-12.1959
ME	-12.1971
fa	-12.1973
▁gl	-12.1981
2.5	-12.1984
▁houses	-12.1987
▁ref	-12.1987
tha	-12.2007
mp	-12.2021
never	-12.2029
▁CA	-12.2031
ri	-12.2038
ork	-12.2045
ORRY	-12.2053
eg	-12.2061
▁qui	-12.2076
▁fixe	-12.2091
ache	-12.2094
mas	-12.2131
▁Wi	-12.2151
-40	-12.216
5"	-12.2169
ets	-12.2195
ff	-12.2212
ined	-12.2222
11	-12.223
ame	-12.2233
hakos	-12.2239
urther	-12.2243
zy	-12.2249
ounded	-12.2255
ethod	-12.2256
▁$60.	-12.2276
lace	-12.2292
▁Wo	-12.2302
bed	-12.2303
▁Thick	-12.2305
sman	-12.2347
▁gentl	-12.2372
▁dome	-12.2387
▁Spe	-12.2396
iment	-12.2416
ee	-12.2418
much	-12.242
ater	-12.2429
mage	-12.243
▁tap	-12.2455
SED	-12.2465
elli	-12.2478
wants	-12.249
od	-12.2531
la	-12.254
▁reform	-12.2567
▁stopp	-12.2567
boots	-12.2572
/2	-12.2573
reated	-12.2576
▁cont	-12.2594
▁medi	-12.26
sides	-12.2628
5.4	-12.264
col	-12.2649
urni	-12.2659
first	-12.2661
tell	-12.2662
▁Ven	-12.2663
▁bet	-12.267
▁exchang	-12.2679
IED	-12.2686
RUN	-12.2692
▁fu	-12.2697
▁rin	-12.2727
▁outing	-12.2741
▁Ad	-12.2745
▁Wom	-12.2752
▁10-1	-12.2756
▁enhance	-12.2771
ither	-12.2794
raveled	-12.2797
warm	-12.2801
▁val	-12.2802
PL	-12.2807
▁......	-12.2812
know	-12.2831
pending	-12.2855
ding	-12.287
▁8-	-12.2871
▁studi	-12.2891
▁Part	-12.2892
Amazon	-12.2903
▁Swim	-12.2911
ved	-12.2919
egan	-12.293
▁confus	-12.2956
▁id	-12.2958
▁tro	-12.2966
pic	-12.2966
5/	-12.2981
ically	-12.2985
▁cle	-12.2986
▁THR	-12.299
▁tease	-12.2992
fts	-12.2993
big	-12.3003
▁destin	-12.3014
az	-12.3028
hold	-12.303
who	-12.3047
heel	-12.3048
full	-12.3054
night	-12.3076
▁vers	-12.309
fabric	-12.3095
ebels	-12.3097
▁Kni	-12.3107
estern	-12.3111
odder	-12.3115
shing	-12.3146
their	-12.3178
actually	-12.3194
partial	-12.3209
since	-12.3212
excellent	-12.3213
always	-12.3224
▁250	-12.3262
aked	-12.3264
wise	-12.3266
wanted	-12.3267
▁challeng	-12.3275
▁82	-12.3283
oid	-12.3283
arrived	-12.3283
▁sac	-12.3283
▁10-	-12.329
YS	-12.3295
eller	-12.3301
▁somewh	-12.3302
say	-12.3306
slippers	-12.3312
▁ru	-12.3313
pocket	-12.3316
▁peel	-12.3317
▁6.	-12.3328
nough	-12.3334
extreme	-12.334
▁Water	-12.3345
looks	-12.3355
▁hopeful	-12.3363
ppers	-12.3371
▁cort	-12.3371
shape	-12.3381
design	-12.3386
brand	-12.3396
act	-12.3403
▁Sli	-12.3403
needed	-12.3403
waist	-12.3407
elting	-12.3407
eers	-12.3409
walk	-12.3423
▁seam	-12.3423
▁cond	-12.3437
uncomfortable	-12.344
three	-12.3445
ERR	-12.3445
KET	-12.3447
▁SU	-12.3448
▁TW	-12.345
week	-12.3455
▁eas	-12.3471
expensive	-12.3482
ANS	-12.3488
plastic	-12.349
cold	-12.3492
being	-12.3495
once	-12.3497
break	-12.3499
bo	-12.3499
available	-12.3502
cked	-12.3507
For	-12.3507
▁Def	-12.351
delivery	-12.3513
▁Fi	-12.3514
100	-12.3529
tight	-12.3538
getting	-12.3546
IN	-12.3554
48	-12.3554
On	-12.3555
between	-12.3558
package	-12.3565
customer	-12.3568
burn	-12.3571
VES	-12.3575
VERY	-12.3577
Would	-12.3578
glad	-12.3581
flap	-12.3582
why	-12.3583
tiny	-12.3586
elastic	-12.3589
Like	-12.3589
▁earn	-12.3594
▁ext	-12.3594
eld	-12.3603
LOVE	-12.3604
▁4.	-12.3607
width	-12.3608
ison	-12.3612
TIL	-12.3613
Sport	-12.3616
▁Ev	-12.3623
overall	-12.3625
strong	-12.363
Thanks	-12.3633
particular	-12.3634
such	-12.3634
UN	-12.3638
May	-12.3639
▁FR	-12.3642
sports	-12.3645
photo	-12.3645
PE	-12.365
play	-12.3651
exchange	-12.3653
DS	-12.3656
tail	-12.3659
stick	-12.3659
▁Ann	-12.3671
13	-12.3671
stars	-12.3671
silk	-12.3672
Pp	-12.3672
hair	-12.3673
speakers	-12.3675
▁cop	-12.3676
wore	-12.3677
control	-12.3683
swim	-12.3685
TW	-12.3685
▁combin	-12.3687
firm	-12.3687
costume	-12.3688
oles	-12.369
54	-12.3692
▁ou	-12.3693
EVER	-12.3694
elegant	-12.3696
pple	-12.3696
Line	-12.3697
flexible	-12.37
basically	-12.3702
bs	-12.3703
inch	-12.3705
track	-12.3706
First	-12.3706
cling	-12.3706
padded	-12.3706
sleeves	-12.3707
bunch	-12.3708
outdoor	-12.371
upon	-12.371
Old	-12.3711
pile	-12.3712
Sick	-12.3714
max	-12.3715
Had	-12.3715
Men	-12.3717
feminine	-12.3718
dresses	-12.372
logging	-12.3721
Who	-12.3722
forward	-12.3723
bonus	-12.3723
rug	-12.3724
polyester	-12.3726
figured	-12.3726
breaking	-12.3728
Yeah	-12.3729
WEIGHT	-12.3729
training	-12.373
children	-12.373
Works	-12.3731
secret	-12.3731
appropriate	-12.3732
Fro	-12.3733
Right	-12.3733
pregnancy	-12.3734
bike	-12.3734
belly	-12.3734
▁Ros	-12.3738
dozen	-12.3738
delicate	-12.3739
19	-12.3739
Fool	-12.3739
profile	-12.3739
appealing	-12.3741
snap	-12.3742
USA	-12.3743
From	-12.3743
transparent	-12.3743
bold	-12.3744
GOOD	-12.3745
drafted	-12.3745
SHIRT	-12.3745
looted	-12.3746
luxury	-12.3747
Cotton	-12.3747
lavra	-12.3747
Felt	-12.3748
thickness	-12.3749
organized	-12.3749
Navy	-12.3749
Case	-12.375
Hero	-12.375
ivory	-12.3751
grass	-12.3751
working	-12.3753
▁sea	-12.3753
chester	-12.3754
famous	-12.3755
dry	-12.3758
duty	-12.3759
slim	-12.376
pm	-12.376
game	-12.3761
skirts	-12.3762
CH	-12.3763
pads	-12.3763
▁48	-12.3764
lf	-12.3765
$20	-12.3766
breast	-12.3766
loaded	-12.3769
install	-12.377
zero	-12.3771
draw	-12.3774
rugged	-12.3774
center	-12.3779
cast	-12.378
AV	-12.3784
satin	-12.3785
40"	-12.3785
power	-12.3786
AGE	-12.3786
filling	-12.3786
workers	-12.3791
rch	-12.3792
place	-12.3801
dried	-12.3801
heart	-12.3802
shoulders	-12.3803
shield	-12.3808
stuffed	-12.381
▁offic	-12.3818
war	-12.3823
▁bod	-12.3828
▁jo	-12.3832
▁We	-12.3833
mitted	-12.3836
-21	-12.3837
▁addi	-12.3838
bout	-12.384
▁bear	-12.3844
coin	-12.3845
FIN	-12.3851
ccept	-12.3856
compar	-12.3858
nches	-12.3859
respond	-12.3865
im	-12.3865
▁;	-12.3871
ntique	-12.3874
rich	-12.3877
runs	-12.3881
holds	-12.3886
ief	-12.3894
raise	-12.3894
hot	-12.3894
Or	-12.3898
DLY	-12.3901
bend	-12.3904
chill	-12.3906
▁.....	-12.3907
▁promise	-12.391
▁damag	-12.3912
▁fail	-12.3923
▁hesitat	-12.3929
▁frequen	-12.3933
ashes	-12.3935
▁Act	-12.3937
▁turtleneck	-12.3942
▁Friend	-12.3942
▁23	-12.3945
98	-12.3948
▁Garden	-12.3952
sock	-12.3954
NY	-12.3955
▁rush	-12.3957
▁favo	-12.3959
07	-12.396
Th	-12.3961
antly	-12.3961
▁earmuff	-12.3962
▁staple	-12.3964
▁bird	-12.3965
▁thumb	-12.3965
▁Cel	-12.3967
▁Feel	-12.3968
unch	-12.3971
UCK	-12.3974
sort	-12.3974
thro	-12.3974
▁65	-12.3975
▁arriv	-12.3977
▁specif	-12.398
▁decei	-12.3982
DEA	-12.3984
▁Del	-12.3987
stant	-12.3989
▁underarm	-12.399
▁partie	-12.3991
▁expos	-12.3991
been	-12.3991
▁parent	-12.3992
▁salon	-12.3992
▁import	-12.3993
tation	-12.3993
▁Defin	-12.3995
▁Insula	-12.3996
▁TO	-12.3996
▁Trans	-12.4
▁discontinu	-12.4002
lose	-12.4002
Are	-12.4007
LLA	-12.4009
▁overwhelm	-12.4009
▁las	-12.4012
▁overpronat	-12.4014
ipping	-12.4016
▁5'9	-12.4018
▁disturb	-12.402
▁resembl	-12.4021
▁chlorin	-12.4021
gh	-12.4023
mediate	-12.4023
ob	-12.4024
▁terribl	-12.4024
▁droop	-12.4025
▁fluff	-12.4028
ncidentally	-12.4029
▁stunn	-12.4029
▁fortunate	-12.4029
▁pea	-12.403
▁perfume	-12.4032
▁famil	-12.4032
▁squish	-12.4033
▁unfortunate	-12.4034
▁inspire	-12.4034
▁sturd	-12.4034
▁estimate	-12.4034
▁WOM	-12.4035
▁AAA	-12.4035
berry	-12.4036
eenage	-12.4037
▁adapt	-12.4037
▁fasci	-12.4039
▁5'7	-12.4039
▁nav	-12.4039
▁retire	-12.4039
▁econom	-12.404
xpensive	-12.4041
utdoor	-12.4042
ages	-12.4042
ULT	-12.4043
ifferent	-12.4043
TRA	-12.4044
▁5'2	-12.4044
▁plung	-12.4044
ilicone	-12.4046
requently	-12.4046
ilities	-12.4047
▁Engl	-12.4049
urgundy	-12.405
electi	-12.405
▁Origin	-12.405
▁distribut	-12.405
ces	-12.405
carf	-12.4051
uropean	-12.4051
orgeous	-12.4051
ortunately	-12.4052
agazine	-12.4052
escribed	-12.4052
▁SANDAL	-12.4052
ashmina	-12.4052
ssentials	-12.4053
satisfactory	-12.4053
erformance	-12.4053
VERAL	-12.4053
RON	-12.4054
▁consci	-12.4054
Tac	-12.4054
bject	-12.4054
▁distinct	-12.4054
▁basket	-12.4054
packs	-12.4054
▁colum	-12.4054
▁COMFORT	-12.4054
▁suburb	-12.4055
▁Craig	-12.4055
▁Lauderdale	-12.4055
aaaahhh	-12.4055
▁diameter	-12.4055
▁enthusias	-12.4055
▁gauze	-12.4055
▁oppressive	-12.4055
▁subsequent	-12.4055
GLASSES	-12.4055
HORRIBLE	-12.4055
Hollywood	-12.4055
PENSIVE	-12.4055
SCENTED	-12.4055
Undergear	-12.4055
antiossage	-12.4055
marrying	-12.4055
rtisans	-12.4055
uniboob	-12.4055
uxedo	-12.4055
▁34-35''	-12.4055
▁42-44	-12.4055
▁50/50	-12.4055
▁ADIDAS	-12.4055
▁Attention	-12.4055
▁BIRTHDAY	-12.4055
▁BROKE	-12.4055
▁Bridesmaid	-12.4055
▁CHIL	-12.4055
▁COMPLAIN	-12.4055
▁COOL	-12.4055
▁CROCS	-12.4055
▁CUFFS	-12.4055
▁Cashmere	-12.4055
▁Censor	-12.4055
▁Champagne	-12.4055
▁DESIGN	-12.4055
▁Description	-12.4055
▁Dilates	-12.4055
▁Disneyland	-12.4055
▁EITHER	-12.4055
▁Endeavor	-12.4055
▁FEET	-12.4055
▁FedEx	-12.4055
▁GIFT	-12.4055
▁Gizmo	-12.4055
▁Gregory	-12.4055
▁HUSBAND	-12.4055
▁Hampton	-12.4055
▁IMHO	-12.4055
▁Kocher	-12.4055
▁LEWIS	-12.4055
▁Landowner	-12.4055
▁Lawless	-12.4055
▁Mania	-12.4055
▁Mexican	-12.4055
▁Minnetonka	-12.4055
▁Miserable	-12.4055
▁Montana	-12.4055
▁NineWes	-12.4055
▁OUR	-12.4055
▁Oregon	-12.4055
▁PERIOD	-12.4055
▁PICTURE	-12.4055
▁PLAC	-12.4055
▁Portugal	-12.4055
▁Prima	-12.4055
▁RAIN	-12.4055
▁REASON	-12.4055
▁RECOMMEND	-12.4055
▁RETURN	-12.4055
▁SHORTS	-12.4055
▁STRETCH	-12.4055
▁Saturday	-12.4055
▁Siberia	-12.4055
▁TRAVEL	-12.4055
▁TURN	-12.4055
▁UNCOMFORTABLE	-12.4055
▁Utah	-12.4055
▁VERSION	-12.4055
▁WARNING	-12.4055
▁accomplished	-12.4055
▁achieve	-12.4055
▁adjective	-12.4055
▁adventure	-12.4055
▁airplane	-12.4055
▁apologetic	-12.4055
▁appalled	-12.4055
▁apprehensive	-12.4055
▁approval	-12.4055
▁archaeologi	-12.4055
▁beneficial	-12.4055
▁century	-12.4055
▁champagne	-12.4055
▁charcoal	-12.4055
▁chicago	-12.4055
▁consistency	-12.4055
▁crystal	-12.4055
▁deciding	-12.4055
▁deodorant	-12.4055
▁detergent	-12.4055
▁diagonal	-12.4055
▁ecstatic	-12.4055
▁elegance	-12.4055
▁encompass	-12.4055
▁estrella	-12.4055
▁explosi	-12.4055
▁fatigue	-12.4055
▁fingertips	-12.4055
▁gemstones	-12.4055
▁glitter	-12.4055
▁grommets	-12.4055
▁hygienic	-12.4055
▁identify	-12.4055
▁indentations	-12.4055
▁jingling	-12.4055
▁lavender	-12.4055
▁lifespan	-12.4055
▁medicine	-12.4055
▁miracle	-12.4055
▁navigable	-12.4055
▁neuropathic	-12.4055
▁occurrence	-12.4055
▁outgrowth	-12.4055
▁parachute	-12.4055
▁participat	-12.4055
▁pediatrician	-12.4055
▁photograph	-12.4055
▁physique	-12.4055
▁podiatrist	-12.4055
▁postpartum	-12.4055
▁princess	-12.4055
▁princip	-12.4055
▁prohibitive	-12.4055
▁punishment	-12.4055
▁qualidade	-12.4055
▁racerback	-12.4055
▁respect	-12.4055
▁retracts	-12.4055
▁sausage	-12.4055
▁scoop	-12.4055
▁sophisticat	-12.4055
▁spectacular	-12.4055
▁substitution	-12.4055
▁swollen	-12.4055
▁transferring	-12.4055
▁unacceptable	-12.4055
▁unfavorable	-12.4055
▁urban	-12.4055
▁vehicle	-12.4055
▁volley	-12.4055
▁wallerian	-12.4055
▁OMG	-12.4055
▁cookers	-12.4055
Mintage	-12.4055
tourniquet	-12.4055
▁Brandon	-12.4055
▁Congratulation	-12.4055
▁Delaware	-12.4055
▁Oddly	-12.4055
▁UNDERWEAR	-12.4055
▁amazement	-12.4055
▁artific	-12.4055
▁concert	-12.4055
▁contemplat	-12.4055
▁criticism	-12.4055
▁demonstrat	-12.4055
▁dramatic	-12.4055
▁explod	-12.4055
▁gimick	-12.4055
▁ourselves	-12.4055
▁puppet	-12.4055
▁recomenda	-12.4055
▁smothered	-12.4055
▁sparingly	-12.4055
▁tailgaiting	-12.4055
▁unexpectedly	-12.4055
▁utilize	-12.4055
▁volta	-12.4055
▁wingtip	-12.4055
hinestone	-12.4055
▁ASAP	-12.4055
▁ATT	-12.4055
▁Luggage	-12.4055
▁MIU	-12.4055
▁Skate	-12.4055
▁clothespins	-12.4055
▁exciting	-12.4055
▁imprint	-12.4055
▁physiolog	-12.4055
▁scheme	-12.4055
▁sunshine	-12.4055
powder	-12.4055
rumpled	-12.4055
▁HALF	-12.4055
▁SWEAT	-12.4055
▁burden	-12.4055
▁inflation	-12.4055
▁rental	-12.4055
▁shabby	-12.4055
▁NOTHING	-12.4055
▁SLICK	-12.4055
▁BREAK	-12.4055
▁acknowledg	-12.4055
▁beauties	-12.4055
▁disposables	-12.4055
▁galere	-12.4055
▁lungs	-12.4055
▁Exceptional	-12.4055
▁compensate	-12.4055
▁$$$	-12.4055
▁FOOT	-12.4055
▁FYI	-12.4055
▁und	-12.4055
▁THROW	-12.4055
▁christian	-12.4055
▁tunic	-12.4055
▁Defender	-12.4055
▁FRESH	-12.4055
▁origin	-12.4055
▁parameter	-12.4055
whiskey	-12.4055
▁crude	-12.4055
▁diabetic	-12.4055
▁monitor	-12.4055
OUGH	-12.4055
▁Foka	-12.4055
▁Noisebuster	-12.4055
▁PSP	-12.4055
▁Cheers	-12.4055
▁Supplies	-12.4055
▁contemporary	-12.4055
▁explanat	-12.4055
ASTIC	-12.4055
▁rural	-12.4055
▁teeth	-12.4055
▁Lamb	-12.4055
▁arrested	-12.4055
▁composition	-12.4055
▁eyelid	-12.4055
▁champion	-12.4055
▁ALSO	-12.4055
▁amorous	-12.4055
▁perspective	-12.4055
▁transition	-12.4055
▁repellent	-12.4055
▁sword	-12.4055
ggplant	-12.4055
▁affair	-12.4055
▁intelligen	-12.4055
▁slenderizing	-12.4055
▁headgear	-12.4055
▁WRONG	-12.4055
▁mocas	-12.4055
▁abundan	-12.4055
▁Yama	-12.4055
▁inevitabl	-12.4055
▁1960	-12.4055
▁Wiki	-12.4055
▁India	-12.4055
▁drift	-12.4055
▁gazed	-12.4055
▁supermarket	-12.4055
▁unopened	-12.4055
▁marvelous	-12.4055
▁minimalistic	-12.4055
▁remedie	-12.4055
▁Third	-12.4055
▁integrity	-12.4055
▁OldGlory	-12.4055
▁anatom	-12.4055
▁kikin	-12.4055
▁PAST	-12.4055
▁Roger	-12.4055
▁division	-12.4055
▁microphone	-12.4055
IONAL	-12.4055
▁Christ	-12.4055
▁USUAL	-12.4055
▁Edge	-12.4055
▁christ	-12.4055
allpark	-12.4055
▁eager	-12.4055
▁negro	-12.4055
▁undesirable	-12.4055
▁PANTS	-12.4055
▁grandfather	-12.4055
▁sterno	-12.4055
▁subject	-12.4055
▁Curious	-12.4055
▁SOLE	-12.4055
PECTED	-12.4055
▁girdle	-12.4055
▁unreasonable	-12.4055
ETAIL	-12.4055
▁qualities	-12.4055
▁Charcoal	-12.4055
▁Number	-12.4055
▁unattractive	-12.4055
PPED	-12.4055
▁squir	-12.4055
▁$9.99.	-12.4055
▁spider	-12.4055
▁Angel	-12.4055
▁chaps	-12.4055
ezebel	-12.4055
▁wishlist	-12.4055
▁region	-12.4055
▁delightful	-12.4056
▁laminated	-12.4056
GIRLS	-12.4056
▁breathability	-12.4056
▁portfolio	-12.4056
▁unfriendly	-12.4056
enius	-12.4056
▁curtain	-12.4056
ronic	-12.4056
▁STEPS	-12.4056
▁obese	-12.4056
▁CLOSE	-12.4056
▁Girls	-12.4056
▁$45.00	-12.4056
▁Puff	-12.4056
▁Camp	-12.4056
vaporat	-12.4056
▁spra	-12.4056
▁$25.00	-12.4056
▁unnatural	-12.4056
▁Fresh	-12.4056
▁properties	-12.4056
▁judgement	-12.4056
BLOCK	-12.4056
▁FACT	-12.4056
▁headache	-12.4056
▁dismay	-12.4056
▁Downside	-12.4056
▁Figleaves	-12.4056
▁clumsy	-12.4056
▁5'3"	-12.4056
▁FIR	-12.4056
▁$5.99	-12.4056
▁gross	-12.4056
▁injuries	-12.4056
▁$15.00	-12.4056
▁annoyance	-12.4056
▁fiddle	-12.4056
▁unsatisfactory	-12.4056
ANN	-12.4056
▁weightiest	-12.4056
▁CONC	-12.4056
▁States	-12.4056
▁customary	-12.4056
▁muddle	-12.4056
tspots	-12.4056
6/18	-12.4056
▁stepped	-12.4056
▁Utter	-12.4056
▁REG	-12.4057
▁petti	-12.4057
▁HEEL	-12.4057
ournal	-12.4057
▁speck	-12.4057
romise	-12.4057
▁Marine	-12.4057
Max	-12.4057
▁HAV	-12.4057
▁infant	-12.4057
RRORS	-12.4057
▁sunscreen	-12.4057
matic	-12.4057
▁battle	-12.4057
▁lengthwise	-12.4057
▁Radi	-12.4057
▁Ranks	-12.4057
▁recognizable	-12.4057
▁relation	-12.4057
▁SLI	-12.4057
▁Rude	-12.4057
▁knockoff	-12.4057
Fanny	-12.4057
▁clutch	-12.4058
▁sealed	-12.4058
▁dumb	-12.4058
▁guilt	-12.4058
▁innocen	-12.4058
▁realistic	-12.4058
▁editor	-12.4058
▁999	-12.4058
▁USED	-12.4058
▁slough	-12.4058
▁Santa	-12.4058
▁eighties	-12.4058
▁1989.	-12.4058
▁worries	-12.4058
▁cursing	-12.4058
▁restrain	-12.4058
anana	-12.4058
▁Malo	-12.4058
gerated	-12.4058
▁banana	-12.4058
▁clench	-12.4058
▁minimalist	-12.4058
▁quires	-12.4058
▁cancel	-12.4058
▁expression	-12.4058
ronco	-12.4059
▁Russ	-12.4059
▁NEEDED	-12.4059
▁sunlight	-12.4059
▁preschool	-12.4059
▁REST	-12.4059
▁stubb	-12.4059
▁scream	-12.4059
▁wringing	-12.4059
▁seductive	-12.4059
liberate	-12.4059
▁moveability	-12.4059
▁revision	-12.4059
IVED	-12.4059
▁splash	-12.4059
▁formfitting	-12.406
▁Canada	-12.406
▁sweetness	-12.406
▁decoration	-12.406
▁xx	-12.406
▁Arrival	-12.406
▁blood	-12.406
▁jockey	-12.406
▁SUN	-12.406
▁plover	-12.4061
▁impede	-12.4061
▁palace	-12.4061
Steelers	-12.4061
▁$36	-12.4061
▁Cool	-12.4061
▁Age	-12.4061
▁ITEMS	-12.4061
▁Turk	-12.4061
▁Mesh	-12.4061
MEDI	-12.4061
▁reduction	-12.4061
▁operation	-12.4061
▁Peter	-12.4061
▁layout	-12.4061
▁youngest	-12.4061
▁BLUE	-12.4061
▁detector	-12.4061
MBLE	-12.4062
abilities	-12.4062
▁disgusted	-12.4063
▁TIMES	-12.4063
▁France	-12.4063
▁household	-12.4063
▁wandered	-12.4063
▁ignored	-12.4063
▁calculated	-12.4063
MPT	-12.4063
▁Island	-12.4063
▁ricket	-12.4063
▁$27	-12.4064
▁hunger	-12.4064
▁Seriously	-12.4064
▁carelessly	-12.4064
▁$200	-12.4064
▁CALL	-12.4064
▁conven	-12.4064
▁GU	-12.4064
▁defi	-12.4064
▁novel	-12.4064
▁successfully	-12.4065
▁leader	-12.4065
▁unfold	-12.4065
▁faith	-12.4065
usband	-12.4065
▁charit	-12.4065
▁Chiapa	-12.4065
▁acute	-12.4065
▁batch	-12.4065
▁Alice	-12.4066
▁epi	-12.4066
couraged	-12.4066
▁Uncomfortable	-12.4066
▁lens	-12.4066
▁history	-12.4066
▁sixty	-12.4066
ULTI	-12.4067
▁crust	-12.4067
uilt	-12.4067
▁overpowering	-12.4067
▁auto	-12.4067
▁elevat	-12.4067
Logic	-12.4067
anvas	-12.4068
ROBE	-12.4068
▁keycase	-12.4068
bound	-12.4068
▁crest	-12.4068
rilla	-12.4069
▁Days	-12.4069
▁sincerely	-12.4069
Cautio	-12.4069
▁clown	-12.4069
▁(34	-12.407
▁disintegrate	-12.407
▁MAY	-12.407
timate	-12.407
▁BR	-12.407
▁11.5	-12.407
▁fascia	-12.407
-2110	-12.4071
▁Holding	-12.4071
▁;)).	-12.4071
▁consec	-12.4071
▁compet	-12.4071
▁6'2	-12.4071
▁prime	-12.4072
▁140	-12.4072
pric	-12.4072
aska	-12.4072
▁favorably	-12.4072
▁furry	-12.4072
▁PLEAS	-12.4073
▁danger	-12.4073
▁neighbor	-12.4073
▁:-(	-12.4073
▁Sweatshirt	-12.4073
▁Scott	-12.4074
CLIPS	-12.4074
▁pouring	-12.4074
AAAA	-12.4074
Sightsee	-12.4075
▁charity	-12.4075
▁SO	-12.4075
olicy	-12.4075
▁WATER	-12.4075
rsion	-12.4075
OY	-12.4075
▁gems	-12.4075
▁unti	-12.4076
ornings	-12.4076
rist	-12.4076
logy	-12.4077
▁Ult	-12.4077
▁squished	-12.4077
▁immobil	-12.4077
▁perfumed	-12.4077
▁groom	-12.4078
▁sym	-12.4078
▁Mich	-12.4079
▁silly	-12.4079
▁premi	-12.4079
nberry	-12.4079
▁comod	-12.4079
DRO	-12.4079
▁horn	-12.4079
▁robert	-12.408
▁overdressed	-12.408
▁rays	-12.4081
▁WEARS	-12.4081
▁plunging	-12.4081
▁boring	-12.4081
▁software	-12.4082
TRAP	-12.4082
▁Minim	-12.4082
▁Alter	-12.4083
block	-12.4083
DOU	-12.4084
smith	-12.4084
▁Ske	-12.4084
▁prop	-12.4084
▁undersized	-12.4084
▁Oats	-12.4085
▁IN	-12.4085
▁attending	-12.4085
▁foil	-12.4085
▁2000	-12.4086
▁Viet	-12.4086
rated	-12.4088
▁deck	-12.4088
▁$119	-12.4088
ONS	-12.4088
$65	-12.4089
▁pride	-12.4089
▁disturbing	-12.4089
▁BOD	-12.409
TIVE	-12.409
▁Glare	-12.4091
▁detached	-12.4091
▁NewGrip	-12.4092
▁Grew	-12.4092
▁growth	-12.4092
2-4	-12.4092
tured	-12.4092
vative	-12.4092
▁5'9"	-12.4093
▁SMI	-12.4093
tweed	-12.4093
evision	-12.4093
rushed	-12.4094
▁fighting	-12.4094
▁panty	-12.4095
▁hemp	-12.4095
▁Goodwill	-12.4096
▁guards	-12.4096
▁overpronate	-12.4096
▁muscles	-12.4096
▁projects	-12.4096
▁cartoons	-12.4096
▁abrasions	-12.4097
▁Wolverines	-12.4097
▁characteristics	-12.4097
▁Unions	-12.4097
▁excessively	-12.4097
▁blessing	-12.4098
1/3	-12.4098
▁sheep	-12.4098
▁84	-12.4099
ceremo	-12.4099
/22/0	-12.4099
▁Light	-12.41
erful	-12.41
▁haul	-12.4101
▁crutches	-12.4103
▁prote	-12.4103
uncovered	-12.4104
▁Path	-12.4105
▁impart	-12.4105
▁FO	-12.4105
▁existed	-12.4105
▁14-1	-12.4106
marine	-12.4107
ea	-12.4107
▁5'10	-12.4107
▁pocketbook	-12.4109
▁Germany	-12.4109
TL	-12.4109
▁Alas	-12.411
EGA	-12.411
▁Ea	-12.411
▁subtract	-12.4111
▁durab	-12.4112
nci	-12.4113
▁stitch	-12.4114
▁tense	-12.4114
▁Cruis	-12.4114
mission	-12.4115
▁lawn	-12.4115
ptical	-12.4115
▁centre	-12.4115
▁soiled	-12.4115
▁3/4"	-12.4116
▁represented	-12.4118
atical	-12.4119
▁grease	-12.4119
▁vent	-12.4119
steady	-12.4119
▁offset	-12.412
▁travelers	-12.412
tical	-12.412
▁reaches	-12.4121
▁smash	-12.4125
urine	-12.4125
▁breatheable	-12.4128
▁incident	-12.4129
▁clumsi	-12.413
industr	-12.4133
▁reported	-12.4134
▁(7	-12.4135
1-3	-12.4135
▁Lion	-12.4135
▁justify	-12.4137
▁8.5"	-12.4139
▁Bones	-12.4141
▁inc	-12.4141
▁bearer	-12.4143
▁subside	-12.4144
nformation	-12.4146
▁efficiently	-12.4147
AP	-12.4148
▁Seat	-12.4148
▁unbelievabl	-12.4148
117	-12.4149
▁insist	-12.4149
▁Grey	-12.4149
ators	-12.415
▁dip	-12.4151
endors	-12.4152
▁maid	-12.4152
??)	-12.4154
▁imm	-12.4154
?!?	-12.4154
▁Hydr	-12.4157
▁lunches	-12.4158
▁(50	-12.4158
▁hind	-12.4159
quer	-12.4162
chasing	-12.4162
▁rout	-12.4163
LIVE	-12.4164
zzy	-12.4164
▁Shade	-12.4164
▁STYLE	-12.4166
▁underarms	-12.4166
▁Friends	-12.4168
eating	-12.4168
▁10-12	-12.4168
▁turtlenecks	-12.4168
▁ranks	-12.4169
▁tolerable	-12.4169
▁placement	-12.417
▁Rate	-12.4172
▁PO	-12.4174
▁operat	-12.4175
▁circle	-12.4176
▁tools	-12.4177
▁numb	-12.4178
▁chilled	-12.4179
▁nerve	-12.4179
Str	-12.4181
▁shadow	-12.4182
lusive	-12.4182
▁Die	-12.4183
▁promises	-12.4183
sub	-12.4183
▁revers	-12.4184
▁tightness	-12.4184
▁decorati	-12.4186
oyfriend	-12.4188
▁AWSOM	-12.4188
990	-12.419
▁reception	-12.4191
▁Shock	-12.4191
▁phrase	-12.4192
▁foul	-12.4193
▁voila	-12.4193
▁chips	-12.4193
izz	-12.4193
▁expansion	-12.4193
▁gizmo	-12.4193
▁(38	-12.4193
▁dainty	-12.4194
▁snuffing	-12.4194
▁Regular	-12.4194
▁FINALLY	-12.4195
▁ENDED	-12.4195
▁whistle	-12.4196
▁Lightweight	-12.4196
▁exten	-12.4196
▁intent	-12.4198
▁hugging	-12.4201
▁slash	-12.4203
▁unnecessar	-12.4203
▁rug	-12.4203
▁Monoc	-12.4204
▁foundation	-12.4205
▁specialist	-12.4206
▁gig	-12.4206
▁quantit	-12.4206
▁Silver	-12.4206
▁attend	-12.4206
▁employee	-12.4207
ECE	-12.4208
▁victori	-12.4209
▁highlight	-12.4211
wattle	-12.4212
▁Surely	-12.4212
▁End	-12.4213
▁brim	-12.4216
elcro	-12.4217
▁Tim	-12.4217
▁informing	-12.422
▁GRA	-12.4221
▁pear	-12.4221
cho	-12.4221
▁$75.	-12.4222
▁fastening	-12.4222
che	-12.4223
▁cater	-12.4223
▁limiting	-12.4224
▁mega	-12.4224
cement	-12.4225
▁enclose	-12.4227
SELL	-12.4228
▁fiancee	-12.4229
▁discovery	-12.4229
▁defend	-12.4229
UMB	-12.4231
▁calm	-12.4231
▁athletes	-12.4232
▁breakers	-12.4232
depend	-12.4234
▁candy	-12.4234
▁corn	-12.4235
▁horses	-12.4237
ayfarer	-12.424
▁exert	-12.4241
▁brighten	-12.4241
▁occurs	-12.4242
▁undergarments	-12.4242
▁sky	-12.4246
▁comf	-12.4246
▁viewing	-12.4246
did	-12.4249
▁oddly	-12.425
▁perfection	-12.425
▁Adi	-12.4254
Needles	-12.4255
▁itiner	-12.4255
ell	-12.4256
▁ranger	-12.4259
PRICED	-12.426
ENC	-12.4261
▁TRY	-12.4261
▁TA	-12.4264
▁hopeless	-12.4265
▁wage	-12.4265
▁Per	-12.4266
▁23.	-12.4266
▁substantially	-12.4267
AL	-12.4267
▁ribb	-12.4268
roke	-12.4268
▁Hue	-12.4269
▁flag	-12.427
▁Heap	-12.4274
▁WON	-12.4275
▁Pu	-12.4276
▁equi	-12.4276
▁ducts	-12.4277
▁instant	-12.4279
rine	-12.428
roomier	-12.428
▁58	-12.4281
▁TE	-12.4282
▁files	-12.4283
▁accents	-12.4284
▁bount	-12.4284
▁beca	-12.4286
1110	-12.4286
▁deals	-12.4287
▁core	-12.4289
▁$18.	-12.4293
!!!!!!!	-12.4296
aggy	-12.4298
▁eve	-12.4302
ape	-12.4303
▁parad	-12.4305
▁sake	-12.4307
lands	-12.4309
▁peep	-12.4312
▁bears	-12.4314
▁impressions	-12.4315
closure	-12.4316
▁Basi	-12.4317
ality	-12.4318
EES	-12.4318
▁astound	-12.4323
▁tendon	-12.4325
▁asleep	-12.433
oooooooooooooooo	-12.4334
rment	-12.4334
▁vested	-12.4334
▁mice	-12.4336
▁str	-12.4336
▁helper	-12.4337
▁LINE	-12.4338
PACKA	-12.4346
▁showered	-12.4351
▁ov	-12.4355
▁install	-12.4357
▁shove	-12.4357
▁Complete	-12.4358
▁chains	-12.4358
▁theory	-12.4361
currenc	-12.4363
▁settl	-12.4365
Marie	-12.4365
umble	-12.4365
▁stares	-12.4371
▁crowds	-12.4377
▁King	-12.4377
MOR	-12.4381
▁mule	-12.4382
sling	-12.4383
DIT	-12.4386
▁invit	-12.4388
▁lunching	-12.4391
▁proportions	-12.4392
▁meta	-12.4393
▁LAND	-12.4397
▁pla	-12.4401
▁invent	-12.4402
▁stretchable	-12.4403
▁surg	-12.4403
▁bless	-12.4404
▁backward	-12.4406
tude	-12.4409
▁Bur	-12.441
115	-12.441
▁letter	-12.4411
zen	-12.4414
Grip	-12.4418
▁Mile	-12.4419
quire	-12.4423
▁captur	-12.4424
tied	-12.4428
▁intentional	-12.4429
▁Opti	-12.443
▁cats	-12.443
▁mod	-12.4437
6.7	-12.4439
▁accessed	-12.4443
ollars	-12.4444
▁passing	-12.4445
▁poly	-12.4448
▁brun	-12.4448
SIDE	-12.445
▁indefinitely	-12.445
RGE	-12.4455
AB	-12.4456
▁ster	-12.4461
VIE	-12.4464
▁Lan	-12.4464
▁females	-12.4466
▁progress	-12.4469
▁cents	-12.447
▁reports	-12.4472
▁feather	-12.4475
▁commut	-12.4479
▁rank	-12.448
▁partial	-12.4481
aybe	-12.4483
▁tel	-12.4484
▁temps	-12.4485
ram	-12.4492
▁corrected	-12.4493
READ	-12.4499
bec	-12.4503
sp	-12.4508
▁myster	-12.451
esses	-12.4519
reak	-12.4521
eams	-12.4523
----	-12.4533
▁carriers	-12.4538
▁lately	-12.4539
vy	-12.4542
▁situations	-12.4542
▁advertisements	-12.4544
▁tips	-12.4546
metrical	-12.4548
TELL	-12.4548
god	-12.455
rows	-12.4551
TAL	-12.4552
▁intr	-12.4552
▁pit	-12.4558
vic	-12.456
hemmed	-12.4563
uitar	-12.4565
ideo	-12.4565
iling	-12.4571
wing	-12.4576
iel	-12.4577
bob	-12.4579
▁imagined	-12.4582
▁cry	-12.4584
snow	-12.4594
oming	-12.4596
▁ta	-12.4604
alon	-12.4605
▁lowered	-12.4611
▁former	-12.463
others	-12.4633
▁Powers	-12.4635
ued	-12.4636
none	-12.4639
▁Mon	-12.4643
obby	-12.4646
▁woods	-12.4646
▁pray	-12.4646
sherman	-12.4649
49	-12.465
inal	-12.4651
▁blade	-12.466
▁proves	-12.4668
▁tug	-12.467
onia	-12.467
tars	-12.4672
▁blaz	-12.4673
vision	-12.4677
▁babe	-12.4686
▁transform	-12.4688
▁upward	-12.469
▁10.	-12.4701
55"	-12.4701
ASKE	-12.4703
▁dev	-12.4705
icle	-12.4705
▁optional	-12.4711
▁dron	-12.4712
▁LA	-12.4718
▁joint	-12.472
acking	-12.4722
▁Grandm	-12.4722
▁span	-12.4723
IFF	-12.4727
whites	-12.4729
65	-12.4734
▁Absolute	-12.4736
103	-12.4741
▁III	-12.4746
hort	-12.4752
ace	-12.4752
section	-12.4758
tion	-12.4758
obsess	-12.4759
articular	-12.4778
▁20.	-12.4783
200	-12.4785
▁gaps	-12.4786
labor	-12.4787
ays	-12.4795
▁EL	-12.48
rrrr	-12.4803
quet	-12.4803
▁perm	-12.4811
▁smiles	-12.4815
▁swell	-12.4817
take	-12.4818
ivid	-12.4822
uant	-12.4823
flag	-12.4824
aterproof	-12.4843
▁adults	-12.4844
▁$5.	-12.4845
▁blankets	-12.4845
▁fa	-12.4846
▁selecti	-12.4848
▁shi	-12.4851
open	-12.4851
▁sigh	-12.4863
9.99	-12.4873
cker	-12.488
witty	-12.4882
uous	-12.4886
pping	-12.4888
▁Hurr	-12.4889
quette	-12.489
▁sting	-12.4897
▁Spen	-12.4897
LF	-12.4901
▁airy	-12.4922
PEN	-12.493
-2120.	-12.4935
feeble	-12.4936
▁downsides	-12.494
sewn	-12.4981
▁hus	-12.4993
▁fle	-12.5005
87	-12.5011
unted	-12.5015
▁Ship	-12.5024
stone	-12.5034
hase	-12.5037
▁------	-12.5039
OURSEL	-12.5046
▁enc	-12.5058
▁minu	-12.5075
dressed	-12.508
stumble	-12.5081
east	-12.5086
▁mor	-12.5087
nail	-12.5097
44	-12.511
▁believed	-12.5119
-9	-12.5125
▁$10.	-12.514
gun	-12.5144
▁sha	-12.5149
▁FRE	-12.5151
▁forum	-12.5152
gami	-12.5156
IA	-12.5165
ndered	-12.5167
oldier	-12.5167
▁GE	-12.5169
etails	-12.5174
▁overp	-12.518
ib	-12.519
ied	-12.519
▁12"	-12.5199
▁Bea	-12.52
▁USE	-12.5207
▁thre	-12.5209
▁Sunglass	-12.5211
7.	-12.5219
▁aggr	-12.5226
dish	-12.5228
iled	-12.5231
ORT	-12.5233
▁alley	-12.5262
▁LOCK	-12.5265
▁Str	-12.5269
▁perpe	-12.5277
▁prov	-12.5279
ttering	-12.528
▁$9	-12.5302
azy	-12.5303
AU	-12.5319
▁Open	-12.5322
fullness	-12.5322
opped	-12.5328
dle	-12.5331
-2	-12.5331
▁anticipati	-12.5336
▁promote	-12.5337
▁celebrati	-12.5338
toes	-12.5344
enne	-12.535
▁Bei	-12.5353
▁pour	-12.5365
95	-12.5365
▁bottles	-12.5372
▁craft	-12.5383
▁PA	-12.5392
▁Whit	-12.5395
▁$29.	-12.5401
blem	-12.5403
▁whatnot	-12.541
atter	-12.5417
▁SERVE	-12.5424
▁pres	-12.5425
CHOO	-12.5431
bare	-12.5438
ix	-12.544
perry	-12.5448
▁variet	-12.5452
▁conf	-12.5453
ancer	-12.5455
▁pac	-12.5456
▁Sil	-12.5457
left	-12.5463
SPEC	-12.5478
▁8.	-12.548
▁6...	-12.5485
rved	-12.5487
▁prese	-12.549
ications	-12.5492
▁envi	-12.5496
6.50	-12.5499
▁bra	-12.551
▁$7.	-12.5511
URE	-12.5513
▁heap	-12.5518
▁enhanc	-12.5521
)?	-12.5529
OME	-12.5531
ester	-12.5533
ATS	-12.5535
▁writ	-12.5541
▁huss	-12.5556
iously	-12.5563
▁degr	-12.5572
▁$25.	-12.5574
ORN	-12.5595
LIF	-12.5601
RAL	-12.5611
ery	-12.5637
▁32/3	-12.564
Ple	-12.5659
▁dive	-12.566
ze	-12.5672
mer	-12.5674
reach	-12.5674
)!	-12.5681
▁HUN	-12.5683
ncredible	-12.5696
challenged	-12.5699
mmer	-12.5721
▁Lifes	-12.5726
▁spect	-12.5734
▁bagg	-12.5735
eats	-12.5739
12.	-12.5763
ori	-12.5771
ft	-12.5772
tone	-12.5784
pe	-12.5788
EARS	-12.5792
hink	-12.5794
range	-12.5795
/10	-12.5798
bars	-12.5802
▁Belli	-12.5808
scented	-12.5808
▁lengthen	-12.5836
▁Cad	-12.5841
adies	-12.5871
▁PROF	-12.5874
Model	-12.5883
▁scro	-12.5883
uno	-12.5887
▁snugg	-12.5896
42	-12.5918
▁raining	-12.5919
▁remains	-12.5923
▁action	-12.5935
RIPS	-12.5948
▁dish	-12.5957
emember	-12.5962
ties	-12.5963
?...	-12.597
ipped	-12.5971
rocket	-12.598
▁carr	-12.5988
itle	-12.5996
▁relatives	-12.6
gash	-12.6034
curled	-12.6039
frey	-12.6056
estination	-12.6068
tems	-12.6071
era	-12.6073
ics	-12.6077
ash	-12.6078
EAN	-12.608
Pl	-12.6088
▁Swe	-12.6113
idest	-12.6115
46"	-12.612
eriod	-12.6123
IAN	-12.6132
nter	-12.6135
▁springs	-12.6163
umber	-12.6177
icked	-12.619
-20	-12.619
▁spi	-12.6198
BU	-12.62
wel	-12.6221
6"	-12.6227
uddy	-12.6227
▁curse	-12.6229
▁agrees	-12.6244
▁Ge	-12.6245
▁susp	-12.6255
ICK	-12.6261
▁ON	-12.6263
catching	-12.627
▁Cha	-12.6279
ms	-12.6285
hem	-12.6301
▁Ar	-12.6306
▁cutis	-12.631
▁ninet	-12.6314
mber	-12.6322
oy	-12.6323
klu	-12.6331
IF	-12.6336
fied	-12.6337
▁waistbands	-12.6337
bit	-12.6358
ema	-12.6365
thod	-12.6381
0"	-12.6384
sel	-12.6385
engage	-12.6387
xc	-12.6392
▁bou	-12.6405
▁chances	-12.6407
▁itchin	-12.6409
▁swims	-12.643
▁grav	-12.6458
▁ton	-12.6462
▁Hug	-12.6466
este	-12.6472
▁farm	-12.6474
▁sacr	-12.6482
ESTE	-12.6489
knob	-12.6509
32"	-12.6516
andle	-12.6528
ontrol	-12.6537
zazz	-12.6539
las	-12.6567
EAT	-12.6575
dvanced	-12.6581
uess	-12.6588
▁Nin	-12.6593
tex	-12.6596
desc	-12.6598
▁SPI	-12.66
▁fore	-12.6601
sting	-12.6602
conditioned	-12.6603
absorbing	-12.6604
hippers	-12.661
licensed	-12.6627
owed	-12.6635
evi	-12.6639
opping	-12.6654
ploye	-12.6668
enter	-12.6671
usse	-12.6681
ALLO	-12.6682
▁Tri	-12.6689
.6	-12.6694
erce	-12.6694
/24	-12.6699
withstanding	-12.67
far	-12.671
51"	-12.6711
▁decorate	-12.6711
owing	-12.6722
tangle	-12.6725
▁($8	-12.6742
▁Fol	-12.6754
▁Wil	-12.6766
▁limp	-12.6776
ire	-12.6777
ACT	-12.6793
▁del	-12.6797
▁univers	-12.6803
EEE	-12.6817
arrow	-12.6817
▁Dou	-12.6821
mma	-12.6859
▁ink	-12.6871
▁Rev	-12.6875
lvin	-12.6877
tudio	-12.6879
elected	-12.6882
▁easie	-12.6888
▁instruct	-12.6891
▁hesitati	-12.6906
illing	-12.6907
▁Hous	-12.6932
▁Di	-12.6944
▁seats	-12.6959
addle	-12.6963
endous	-12.6969
RT	-12.6973
ations	-12.6978
earskin	-12.6986
▁pus	-12.7001
▁cam	-12.7026
dense	-12.7031
▁doll	-12.7032
oda	-12.7034
▁celebrat	-12.7039
llet	-12.7039
▁fashions	-12.7047
▁bee	-12.705
ately	-12.7055
bility	-12.7059
olish	-12.7066
.00.	-12.7071
▁rains	-12.7081
▁WAI	-12.7081
ues	-12.7084
▁compares	-12.7092
sty	-12.7095
treme	-12.7097
hearted	-12.7099
10"	-12.7107
▁taper	-12.7109
sion	-12.7113
▁SP	-12.7125
lous	-12.713
paid	-12.714
ta	-12.7147
▁Pron	-12.7164
GG	-12.7166
blend	-12.7173
ke	-12.7174
pressed	-12.7189
bsorbed	-12.7189
oo	-12.7193
ield	-12.7211
▁SHA	-12.7225
▁confe	-12.7232
▁cri	-12.7238
ently	-12.7246
▁CARE	-12.7247
ok	-12.7256
▁Break	-12.7287
aver	-12.7315
▁At	-12.7316
▁197	-12.7326
▁Clima	-12.733
icy	-12.7333
▁hur	-12.7339
fes	-12.7346
owest	-12.7367
▁shops	-12.7372
▁Merr	-12.7373
mid	-12.7375
amous	-12.739
▁reader	-12.7394
▁indis	-12.7398
▁Gu	-12.7407
▁(10	-12.7438
oooo	-12.7439
▁seal	-12.7457
▁sing	-12.7536
▁LAD	-12.7537
▁Rai	-12.7562
▁hom	-12.7582
ended	-12.7582
ina	-12.7588
▁ne	-12.7589
▁Sai	-12.7596
▁Coa	-12.76
SU	-12.76
▁reli	-12.7601
otto	-12.7613
▁Add	-12.7619
dual	-12.7624
3"	-12.7635
nor	-12.7636
res	-12.7681
EW	-12.7685
▁aerosole	-12.7689
FL	-12.7689
▁tur	-12.7692
▁wis	-12.7699
ilia	-12.7705
▁div	-12.7713
▁thi	-12.7722
codes	-12.7744
▁Ou	-12.7744
mbling	-12.7746
ERS	-12.7753
j	-12.7765
ough	-12.778
▁Shi	-12.7782
▁noted	-12.7799
nner	-12.7812
▁tore	-12.7813
110	-12.7832
▁nois	-12.7839
9)	-12.7858
▁informe	-12.7866
▁pol	-12.7869
▁Fas	-12.7899
▁therm	-12.7911
ntact	-12.7915
▁suggests	-12.7919
icate	-12.7932
▁HAT	-12.7936
rrow	-12.795
▁wat	-12.7951
tries	-12.7952
▁pos	-12.796
MS	-12.7962
ulation	-12.7965
▁merri	-12.797
-11	-12.8001
sica	-12.8008
▁bowle	-12.8015
IL	-12.8026
▁wh	-12.8031
▁sen	-12.804
price	-12.8075
▁cur	-12.8104
olym	-12.8122
UGH	-12.8134
pp	-12.8134
tracks	-12.8141
▁Compa	-12.8143
▁WORR	-12.8157
▁celebrate	-12.8169
▁Exp	-12.8188
▁becom	-12.819
▁.	-12.8202
Garters	-12.8208
vested	-12.8209
pop	-12.8224
/20	-12.8272
▁Doc	-12.8278
▁rubb	-12.8278
▁contributi	-12.8289
FF	-12.8294
FI	-12.8299
lent	-12.8309
▁MOVE	-12.8326
butt	-12.8343
alized	-12.8364
omb	-12.8367
▁WA	-12.8379
▁$17	-12.8384
▁CAT	-12.8387
washing	-12.8402
▁scra	-12.841
▁awe	-12.8414
mpressed	-12.8416
views	-12.8416
811	-12.8417
etting	-12.8419
..............	-12.8419
ASS	-12.844
▁Mun	-12.8447
!....	-12.8452
vity	-12.8456
ming	-12.8474
poses	-12.8491
▁lastly	-12.8493
ooooo	-12.8497
arles	-12.8511
your	-12.8516
▁Unl	-12.8531
▁9.99	-12.8564
ANC	-12.8572
fer	-12.861
▁east	-12.8616
arache	-12.8618
akes	-12.8639
▁Des	-12.8642
shed	-12.8669
tal	-12.8677
merc	-12.8678
▁Wid	-12.8687
elong	-12.8697
tracted	-12.8698
KE	-12.87
▁CR	-12.8711
race	-12.8719
ement	-12.8724
▁Cher	-12.8739
▁pl	-12.8741
▁schools	-12.878
EFUL	-12.8783
ps	-12.8808
kes	-12.8837
from	-12.8841
limax	-12.8844
itz	-12.8849
opefully	-12.886
mall	-12.8862
▁Shin	-12.8865
used	-12.8892
▁HOU	-12.8894
coloration	-12.8919
itch	-12.8937
pens	-12.8944
▁Lea	-12.8945
lves	-12.895
eginner	-12.8953
▁reside	-12.896
▁memorab	-12.8965
4/	-12.8985
▁brea	-12.8993
MEN	-12.8995
refer	-12.9025
arrier	-12.903
eavy	-12.9048
2"	-12.9049
og	-12.9052
hav	-12.9054
nded	-12.9074
mmie	-12.9085
inning	-12.9093
POS	-12.91
▁chi	-12.9113
ez	-12.9141
▁resid	-12.9144
▁EEE	-12.9151
▁41	-12.9154
8.	-12.9159
arl	-12.9184
ouble	-12.9212
▁EV	-12.9213
La	-12.9225
ara	-12.9264
▁inno	-12.9296
▁clum	-12.9301
▁HE	-12.9305
▁intri	-12.9309
▁fe	-12.9315
urning	-12.9345
ndous	-12.9349
alf	-12.9359
EB	-12.9367
rling	-12.9374
▁blad	-12.9374
gin	-12.9378
rough	-12.9392
ndies	-12.9397
tique	-12.9398
gu	-12.9419
Shirts	-12.9426
lle	-12.9428
orthwest	-12.9444
▁inquire	-12.9451
mported	-12.9453
eral	-12.9453
▁Cit	-12.9456
IKE	-12.9458
▁trans	-12.9464
ail	-12.947
▁bas	-12.9485
▁attack	-12.949
11.	-12.9496
nel	-12.9509
laci	-12.9519
reaking	-12.9533
▁$8.	-12.9541
Store	-12.9561
▁gri	-12.9585
▁wea	-12.9586
▁induc	-12.9618
uck	-12.962
▁hid	-12.9633
▁qu	-12.9639
▁10)	-12.9649
hip	-12.9651
HAM	-12.9653
teful	-12.9657
appily	-12.9662
▁dens	-12.9665
oss	-12.9675
suits	-12.9677
60.	-12.9678
▁rotat	-12.9699
▁fool	-12.9735
▁Tenn	-12.9744
▁fin	-12.9745
tly	-12.9749
▁compl	-12.977
▁swi	-12.9786
▁FLO	-12.981
▁rectif	-12.986
▁handwash	-12.9865
iate	-12.9883
ENCE	-12.9889
Und	-12.9892
▁RI	-12.9899
▁clothe	-12.992
▁squa	-12.9923
▁ni	-12.9941
azo	-12.9941
▁Sho	-12.9952
▁accura	-12.9964
into	-12.9966
▁Off	-12.9999
sha	-13.0004
part	-13.0016
atches	-13.0046
eceived	-13.0056
▁contin	-13.0064
▁ti	-13.0078
▁Gar	-13.0092
▁Peri	-13.0096
ont	-13.0113
▁DI	-13.0117
imi	-13.0128
▁plu	-13.0143
icious	-13.0151
bove	-13.0153
figures	-13.0156
tech	-13.016
▁engag	-13.016
2007)	-13.0165
shop	-13.0167
▁pret	-13.0178
lide	-13.0178
▁List	-13.0193
▁Va	-13.0195
OT	-13.02
acked	-13.0214
▁cas	-13.0228
TION	-13.0228
ike	-13.0235
lie	-13.024
ooks	-13.0254
ourney	-13.0272
hill	-13.0284
▁wor	-13.0302
rid	-13.0314
aded	-13.0346
▁incorrect	-13.0347
lloween	-13.0372
nut	-13.0412
▁Ga	-13.0416
▁5'	-13.0419
IM	-13.0428
▁sever	-13.0432
nfusion	-13.0435
hi	-13.0439
nnel	-13.0442
ailor	-13.0447
ere	-13.0459
▁grave	-13.0479
feet	-13.0491
▁GT	-13.0516
UIT	-13.0529
pical	-13.0531
kings	-13.0539
efined	-13.0541
▁unde	-13.0548
▁cata	-13.0557
athered	-13.056
eaning	-13.0561
▁$89.	-13.0573
▁SEAR	-13.058
▁57	-13.0583
-100	-13.0593
wearing	-13.0596
▁enforce	-13.0609
port	-13.0621
lled	-13.0625
▁injure	-13.0648
owe	-13.0661
kin	-13.067
HRU	-13.0677
ree	-13.0681
mor	-13.07
9/	-13.0703
nished	-13.0735
▁hon	-13.0749
recommend	-13.0755
TED	-13.0757
ives	-13.0775
▁disposa	-13.0797
ested	-13.081
sent	-13.081
signs	-13.082
perfect	-13.0824
!!!!!!!!!!!!!!!	-13.0825
▁blot	-13.0838
wned	-13.0847
▁yo	-13.0848
▁deserv	-13.0864
▁neg	-13.0865
ise	-13.0872
run	-13.0912
UNK	-13.0913
.............	-13.0916
/30	-13.0921
quito	-13.0924
▁Blo	-13.0928
sement	-13.0929
6)	-13.0934
cluded	-13.0953
cer	-13.0969
ruise	-13.097
▁compromis	-13.0982
▁DA	-13.0983
find	-13.0985
amou	-13.0996
rial	-13.0999
▁46	-13.1018
MISE	-13.1034
▁corpora	-13.1058
▁disp	-13.108
▁gods	-13.108
arch	-13.1115
lar	-13.112
▁discret	-13.1149
.98	-13.115
▁PUR	-13.1154
pole	-13.1155
ray	-13.1165
BEL	-13.1173
them	-13.1178
CHO	-13.1181
live	-13.119
CS	-13.1198
hard	-13.1209
ks	-13.1214
▁admir	-13.1226
▁$29	-13.1231
▁anticipat	-13.1233
eam	-13.1234
▁GA	-13.124
try	-13.1259
lex	-13.1262
▁Protecti	-13.1264
ature	-13.1276
▁monst	-13.1306
VE	-13.131
lete	-13.1315
▁et	-13.1318
onvince	-13.1323
IR	-13.133
could	-13.1331
still	-13.1332
OLID	-13.1343
GS	-13.1346
▁din	-13.1352
▁CONS	-13.1359
hich	-13.1363
▁rocki	-13.1364
▁oppos	-13.1368
make	-13.1387
8.50	-13.1388
▁Se	-13.1396
AVE	-13.1401
support	-13.1401
RP	-13.1402
▁compli	-13.1425
IS	-13.1433
▁DEC	-13.145
apping	-13.1466
maxim	-13.1468
definitely	-13.1472
think	-13.1474
▁Sw	-13.1477
▁scr	-13.1482
▁ampl	-13.1505
team	-13.1527
ender	-13.1545
▁sna	-13.1564
parts	-13.1565
purchased	-13.1567
sans	-13.1578
need	-13.1584
50.00	-13.1584
iated	-13.16
IE	-13.1633
▁Adjust	-13.1636
lark	-13.1645
▁inf	-13.1646
▁WORS	-13.1654
dding	-13.1661
duced	-13.1663
CRO	-13.1674
▁TRIP	-13.1675
ounds	-13.168
found	-13.1684
bow	-13.1708
▁crafts	-13.173
▁SPE	-13.1735
▁Mo	-13.1753
▁darke	-13.1756
io	-13.1791
itis	-13.1795
mes	-13.1796
▁indi	-13.1797
▁classical	-13.1801
▁involv	-13.1807
ocket	-13.1808
conspir	-13.1824
ozen	-13.1829
locked	-13.1835
▁9-	-13.1838
ssiere	-13.1839
▁def	-13.1845
another	-13.1852
▁PU	-13.1871
▁Sol	-13.1871
oup	-13.1876
happy	-13.1881
▁FL	-13.1897
▁WE	-13.1899
uish	-13.1912
ortheast	-13.1915
230	-13.1929
years	-13.1936
LINE	-13.1936
gling	-13.1943
nnet	-13.1947
bsolutely	-13.1973
edding	-13.1975
ited	-13.198
ren	-13.2017
Great	-13.2017
zz	-13.2026
15	-13.2032
▁BEA	-13.2034
didn	-13.2044
does	-13.205
worth	-13.2059
PO	-13.2064
▁inquir	-13.2066
▁divid	-13.2078
atched	-13.208
bbles	-13.2092
ants	-13.2112
something	-13.2112
▁15-	-13.2116
21	-13.2119
▁"5	-13.2122
actical	-13.2127
UI	-13.2149
nly	-13.2154
rigue	-13.2166
money	-13.2185
comfort	-13.2215
before	-13.2231
lity	-13.2239
ec	-13.2265
lime	-13.2268
▁im	-13.2269
▁celebr	-13.2297
ative	-13.2301
aves	-13.2309
NT	-13.2309
weet	-13.2311
▁triathl	-13.2324
alked	-13.2333
render	-13.2334
▁cro	-13.2341
Brief	-13.2347
▁rang	-13.2373
▁ev	-13.2401
gift	-13.2404
same	-13.2415
su	-13.2419
▁gre	-13.2431
▁scru	-13.2441
give	-13.2443
few	-13.2445
under	-13.2452
45	-13.2452
pleased	-13.2455
icular	-13.2472
▁disco	-13.2492
oft	-13.2495
▁STU	-13.2497
months	-13.25
ager	-13.2513
▁hamm	-13.2539
loves	-13.254
vellers	-13.2548
quite	-13.2554
turn	-13.2558
rthwest	-13.2561
▁gen	-13.2566
pad	-13.2581
cket	-13.2584
▁strapp	-13.2584
ivate	-13.2591
MO	-13.2594
everything	-13.2604
thought	-13.2611
rides	-13.2614
wide	-13.2622
running	-13.2629
▁wit	-13.263
edic	-13.2632
▁MA	-13.264
igned	-13.2657
quickly	-13.266
▁tun	-13.2664
special	-13.2669
smaller	-13.2681
easter	-13.2683
expected	-13.2683
ins	-13.2686
wling	-13.2695
both	-13.2704
every	-13.2712
ured	-13.2714
service	-13.2721
return	-13.273
Mov	-13.2736
▁Spr	-13.2755
people	-13.2758
almost	-13.2773
rrr	-13.2776
witch	-13.2779
rican	-13.278
boot	-13.2783
lig	-13.2783
▁sum	-13.2784
lon	-13.2789
scandals	-13.279
raft	-13.2798
arts	-13.2799
▁MU	-13.2802
water	-13.281
rain	-13.2817
seem	-13.2822
rum	-13.2822
stylish	-13.2833
sleep	-13.2833
▁SOO	-13.2837
lized	-13.284
▁pal	-13.2841
gic	-13.2843
larger	-13.2846
grav	-13.285
▁ensur	-13.2851
▁acqu	-13.2863
carry	-13.2864
MAR	-13.2865
hang	-13.2872
luck	-13.2882
▁curren	-13.2884
ided	-13.2887
elled	-13.2888
stretch	-13.2891
cover	-13.2893
ND	-13.2894
▁800	-13.2896
ome	-13.2898
▁Rid	-13.2899
cle	-13.2909
mistakes	-13.2925
▁dine	-13.2938
west	-13.2941
tru	-13.2943
tering	-13.2944
▁fram	-13.295
▁ABSOLUT	-13.2951
gree	-13.2961
however	-13.2967
extra	-13.2967
ersatile	-13.2967
olution	-13.2971
finer	-13.2971
There	-13.2979
▁SHO	-13.2981
wonderful	-13.2983
▁mil	-13.2985
regular	-13.2991
clothes	-13.2997
▁Power	-13.3001
summer	-13.3002
bottom	-13.3003
Good	-13.3004
tick	-13.3014
▁applie	-13.3016
▁Mamm	-13.3017
ye	-13.3023
wrong	-13.3029
wife	-13.3033
true	-13.3034
belt	-13.3036
loose	-13.3036
WEE	-13.3042
▁Fac	-13.3042
▁STAN	-13.3044
▁ent	-13.3046
-----	-13.3054
omed	-13.306
▁$80.	-13.3061
Danc	-13.3063
EY	-13.3066
mour	-13.3083
days	-13.3087
ircle	-13.3095
women	-13.3102
narrow	-13.3103
second	-13.3105
prob	-13.3105
atur	-13.3111
fall	-13.3115
bun	-13.3116
▁Pro	-13.312
said	-13.3121
▁groov	-13.3125
winter	-13.3144
blaze	-13.3146
UL	-13.3153
▁intention	-13.3156
pull	-13.3159
cr	-13.3159
next	-13.3159
ti	-13.3164
straps	-13.317
covered	-13.3172
reason	-13.3172
wedding	-13.3173
instead	-13.3174
length	-13.3177
either	-13.3183
lightweight	-13.3193
home	-13.32
nothing	-13.3205
stock	-13.3205
couldn	-13.3208
▁Ell	-13.3211
derate	-13.3216
▁sil	-13.3217
▁FAL	-13.322
orm	-13.3222
unt	-13.3223
brown	-13.3229
▁Flee	-13.3232
rib	-13.3235
toned	-13.3236
weather	-13.3242
everyday	-13.3247
finally	-13.3252
value	-13.3254
may	-13.3261
sturdy	-13.3262
longer	-13.3272
GREE	-13.3273
purse	-13.3276
ALI	-13.3277
tified	-13.3279
commit	-13.3281
oil	-13.3283
mary	-13.3291
ockies	-13.3294
▁FA	-13.3303
Even	-13.3305
ankle	-13.3312
making	-13.3314
eecher	-13.3315
▁bough	-13.3315
trips	-13.3321
bber	-13.3322
TS	-13.3326
shipped	-13.3327
stage	-13.3335
▁55	-13.3337
▁advanc	-13.3341
credit	-13.3344
clean	-13.3347
business	-13.3348
mind	-13.3348
closed	-13.3353
issue	-13.3356
gging	-13.3357
EED	-13.3367
flattering	-13.3372
▁med	-13.3372
oooooooooooooo	-13.3373
shopping	-13.3375
With	-13.3377
guess	-13.3381
beach	-13.3389
ells	-13.339
▁Vil	-13.339
nursing	-13.3395
ALO	-13.3395
slipper	-13.3397
smooth	-13.34
▁Sur	-13.3402
▁SUR	-13.3402
All	-13.3402
celan	-13.3403
sometimes	-13.3405
button	-13.3405
pink	-13.3409
suggest	-13.341
BER	-13.341
pool	-13.3413
boxers	-13.3417
/0	-13.3417
match	-13.3423
supposed	-13.3426
stiff	-13.3431
backpack	-13.3435
suppurative	-13.3437
child	-13.3438
start	-13.3439
dust	-13.344
New	-13.3443
possible	-13.3443
legs	-13.3445
life	-13.3447
▁hey	-13.3448
yourself	-13.345
29	-13.3452
▁secur	-13.3452
grm	-13.3454
placed	-13.3457
pa	-13.3457
travel	-13.3462
West	-13.3463
kiss	-13.3464
classic	-13.3465
sweat	-13.3475
rubber	-13.3476
cheaper	-13.3476
coat	-13.3476
check	-13.348
scandal	-13.348
four	-13.3489
knee	-13.3489
craft	-13.3489
wider	-13.3491
woman	-13.3495
construction	-13.3495
certain	-13.3497
adjust	-13.3498
sale	-13.3498
ko	-13.35
guy	-13.35
feature	-13.3502
▁licens	-13.3505
heels	-13.3509
Comfortable	-13.351
below	-13.3513
player	-13.3522
rically	-13.3524
gorgeous	-13.3525
mming	-13.3525
THIS	-13.3533
thinking	-13.3533
lift	-13.3535
grandson	-13.354
future	-13.354
Balance	-13.3543
twice	-13.3544
Cross	-13.3548
Other	-13.3548
important	-13.3557
notice	-13.3559
Open	-13.3561
sweatshirt	-13.3562
struction	-13.3563
▁cli	-13.3569
camera	-13.3569
rmal	-13.3572
considering	-13.3572
Adidas	-13.3572
party	-13.3573
delic	-13.3574
middle	-13.3578
Take	-13.3581
ource	-13.3582
BE	-13.3586
cially	-13.3587
cloth	-13.359
bucks	-13.3592
access	-13.3595
undermine	-13.3595
conspi	-13.3598
swimming	-13.3598
▁WO	-13.3599
fleecy	-13.3602
Super	-13.3603
fanny	-13.3604
Will	-13.361
season	-13.3614
Though	-13.3615
paper	-13.3616
unfordable	-13.3617
guard	-13.3621
obviously	-13.3621
provided	-13.3622
buttons	-13.3622
coverage	-13.3623
lingered	-13.3624
WITH	-13.3625
doubt	-13.3626
BUT	-13.3628
▁bur	-13.3629
North	-13.3629
function	-13.3631
▁pur	-13.3631
Product	-13.3632
double	-13.3632
wheel	-13.3632
Met	-13.3634
rounded	-13.3636
▁dispos	-13.3637
Please	-13.364
Boys	-13.364
Grand	-13.3643
bush	-13.3644
popular	-13.3644
states	-13.3646
▁56	-13.3648
candles	-13.3648
minor	-13.3648
sweeter	-13.3649
cushion	-13.365
lcro	-13.365
locking	-13.365
yesterday	-13.3651
basic	-13.3651
spent	-13.3652
wrinkle	-13.3652
5.00	-13.3653
baker	-13.3654
scratch	-13.3654
breathable	-13.3655
attack	-13.3655
perhaps	-13.3656
aunt	-13.3656
ggy	-13.3656
workmanship	-13.3656
select	-13.3656
pitch	-13.3657
liking	-13.3657
Medium	-13.3658
▁styl	-13.3659
everytime	-13.3661
American	-13.3663
trim	-13.3664
▁enabl	-13.3665
ladies	-13.3669
hips	-13.367
essential	-13.367
natural	-13.3673
▁Brid	-13.3673
petite	-13.3673
Anyway	-13.3674
Back	-13.3675
earlier	-13.3676
major	-13.3676
▁Mud	-13.3677
▁prima	-13.3677
directly	-13.3677
wild	-13.3677
Price	-13.3678
discount	-13.368
rub	-13.3681
handling	-13.3681
Never	-13.3681
strict	-13.3681
ugly	-13.3681
purple	-13.3682
THAT	-13.3683
Does	-13.3684
camisole	-13.3685
bath	-13.3686
wedge	-13.3687
Should	-13.3687
prior	-13.3688
appearance	-13.3688
▁quant	-13.3689
unfortunately	-13.3689
brush	-13.3689
sundry	-13.369
according	-13.369
Silver	-13.369
imitation	-13.3691
called	-13.3691
Hope	-13.3691
stretched	-13.3691
level	-13.3691
▁ligh	-13.3691
beware	-13.3691
disappointment	-13.3691
▁inquiri	-13.3692
kick	-13.3692
WAS	-13.3692
bounce	-13.3693
traditional	-13.3694
digging	-13.3694
battery	-13.3695
NES	-13.3695
dream	-13.3695
public	-13.3696
PRO	-13.3697
awful	-13.3698
authentic	-13.3698
HOT	-13.3699
Size	-13.37
plug	-13.37
modest	-13.37
notebook	-13.3701
adequate	-13.3701
mentioned	-13.3701
Char	-13.3701
whistle	-13.3703
Lightweight	-13.3703
label	-13.3704
Hug	-13.3705
Regular	-13.3706
snuffing	-13.3706
FINALLY	-13.3706
listed	-13.3706
China	-13.3706
done	-13.3707
dainty	-13.3707
strange	-13.3708
gizmo	-13.3708
NOW	-13.3708
Comfort	-13.3709
five	-13.3709
expansion	-13.3709
CUTE	-13.3709
voila	-13.3709
apron	-13.3709
Heap	-13.371
hopeless	-13.3711
phrase	-13.3711
(38	-13.3711
specialist	-13.3712
accurate	-13.3712
Pen	-13.3713
hop	-13.3713
shower	-13.3713
solve	-13.3713
release	-13.3713
reception	-13.3714
ENDED	-13.3714
lounge	-13.3714
LAR	-13.3715
impact	-13.3715
Napole	-13.3715
DE	-13.3716
dancing	-13.3716
picked	-13.3716
cuffs	-13.3717
improvement	-13.3717
Years	-13.3717
created	-13.3717
bubbles	-13.3718
Fig	-13.3719
Mallet	-13.3719
stitched	-13.3719
ordinar	-13.3719
Merrell	-13.372
$30	-13.372
moderate	-13.372
load	-13.3721
AWSOM	-13.3721
Our	-13.3721
capered	-13.3721
Vision	-13.3722
glass	-13.3722
relax	-13.3722
page	-13.3722
NEW	-13.3722
chips	-13.3723
Hard	-13.3723
World	-13.3724
Champion	-13.3724
smile	-13.3724
SHIP	-13.3724
contour	-13.3724
overlay	-13.3724
advertising	-13.3725
series	-13.3725
marathon	-13.3725
Kept	-13.3725
More	-13.3725
9.5	-13.3726
beauty	-13.3726
Power	-13.3726
toller	-13.3726
wandering	-13.3726
knit	-13.3726
2007	-13.3726
functionality	-13.3727
leopard	-13.3727
Gigaride	-13.3727
cardboard	-13.3727
loops	-13.3727
Free	-13.3728
program	-13.3728
failed	-13.3728
microfiber	-13.3728
hugging	-13.3728
Letter	-13.3729
shampoo	-13.3729
gloss	-13.373
charging	-13.373
apply	-13.373
windbreaker	-13.373
splints	-13.373
concept	-13.3731
painted	-13.3731
mailbox	-13.3731
sheepskin	-13.3731
dooties	-13.3731
18	-13.3731
Lock	-13.3731
blister	-13.3731
twisted	-13.3732
THANK	-13.3732
sorry	-13.3732
Body	-13.3732
Neck	-13.3733
parents	-13.3733
GO	-13.3733
attempt	-13.3733
Michigan	-13.3733
shade	-13.3733
crushed	-13.3734
climbing	-13.3734
apparel	-13.3734
unbelievabl	-13.3734
beige	-13.3734
THANKS	-13.3734
Second	-13.3735
Cap	-13.3735
thankful	-13.3735
European	-13.3735
naughty	-13.3735
smashed	-13.3735
jingle	-13.3736
repeat	-13.3736
heavyweight	-13.3736
LEE	-13.3736
plate	-13.3736
binding	-13.3737
cargo	-13.3737
garden	-13.3737
shadow	-13.3737
bill	-13.3738
pronated	-13.3738
Didn	-13.3738
4600	-13.3738
packing	-13.3738
DAY	-13.3739
Side	-13.3739
sideways	-13.3739
notorious	-13.3739
sewing	-13.3739
OVER	-13.3739
BRA	-13.374
june	-13.374
height	-13.374
field	-13.374
▁-----	-13.3741
dogs	-13.3741
bosom	-13.3742
Okay	-13.3742
$40	-13.3742
crease	-13.3743
trainer	-13.3744
curly	-13.3744
▁simpl	-13.3745
NYC	-13.3745
streets	-13.3745
800	-13.3745
somehow	-13.3748
numb	-13.3748
frequently	-13.3748
$70	-13.3748
Bag	-13.3748
verage	-13.3748
stability	-13.3749
stitch	-13.375
HAVE	-13.3751
Wars	-13.3751
riding	-13.3751
judge	-13.3752
ypical	-13.3753
buds	-13.3754
aesthetic	-13.3755
technical	-13.3755
How	-13.3756
honest	-13.3756
Ali	-13.3757
involve	-13.3757
hooked	-13.3757
PAI	-13.3757
250	-13.3759
distance	-13.376
trail	-13.376
Less	-13.3761
Age	-13.3762
chilly	-13.3762
dusted	-13.3762
relaxed	-13.3762
Star	-13.3763
31	-13.3763
master	-13.3763
laugh	-13.3764
$	-13.3764
Due	-13.3764
iculous	-13.3766
effective	-13.3766
CAL	-13.3768
rod	-13.3768
tolerable	-13.3769
Chin	-13.377
grand	-13.377
sport	-13.3772
Father	-13.3772
Up	-13.3774
plush	-13.3774
friendly	-13.3774
drag	-13.3774
world	-13.3776
fault	-13.3776
ankles	-13.3777
gray	-13.3778
story	-13.3778
instant	-13.3778
lude	-13.3779
feeling	-13.3779
estimated	-13.3779
merry	-13.3779
care	-13.3779
LIGHT	-13.378
trend	-13.378
portable	-13.3782
Robe	-13.3783
▁accu	-13.3783
ric	-13.3783
Air	-13.3785
wick	-13.3785
truth	-13.3785
fixed	-13.3786
▁Tak	-13.3786
tax	-13.3788
Site	-13.3788
patterns	-13.3789
drive	-13.379
Mean	-13.3791
STYLE	-13.3791
assum	-13.3791
stairs	-13.3792
breath	-13.3792
orange	-13.3794
▁repel	-13.3794
post	-13.3795
adjusting	-13.3795
Any	-13.3799
disc	-13.3799
ydro	-13.3802
2006	-13.3803
esthetic	-13.3803
▁,	-13.3804
▁pub	-13.3804
magnet	-13.3805
ttractive	-13.3806
Green	-13.3807
fastened	-13.3808
scaping	-13.3809
softer	-13.3809
pillow	-13.381
▁Pe	-13.381
AW	-13.3812
technology	-13.3812
cleaning	-13.3815
took	-13.3816
tomorrow	-13.3817
clots	-13.3818
III	-13.3819
▁(2	-13.382
▁crea	-13.3821
▁Flo	-13.3822
EV	-13.3823
mask	-13.3824
▁Flu	-13.3824
ccording	-13.3825
/07	-13.3825
poly	-13.383
shorter	-13.383
dresser	-13.383
ppearance	-13.383
flow	-13.3832
makers	-13.3832
amps	-13.3833
▁excellen	-13.3833
worker	-13.3833
ttaches	-13.3836
cream	-13.3839
▁glo	-13.3839
replacing	-13.3843
frame	-13.3843
breakers	-13.3846
roll	-13.3848
$7.	-13.3848
tighter	-13.3853
deep	-13.3853
fur	-13.3854
practic	-13.3857
▁structur	-13.3857
pictures	-13.3857
must	-13.3862
owner	-13.3863
void	-13.3863
LL	-13.3866
Ma	-13.3867
boat	-13.3867
197	-13.3867
advantage	-13.3868
edges	-13.3868
sta	-13.3868
louse	-13.387
print	-13.3872
rticle	-13.3874
RD	-13.3875
Defin	-13.3875
LO	-13.3875
nails	-13.3875
▁soooooo	-13.3875
imagin	-13.3878
pleasure	-13.3878
▁Sea	-13.3878
rambl	-13.3883
dig	-13.3884
▁Packe	-13.3885
opening	-13.3888
IP	-13.3888
uff	-13.3889
toast	-13.389
resist	-13.389
stocking	-13.3891
rived	-13.3892
▁insiste	-13.3892
7"	-13.3893
▁Sum	-13.3894
LOT	-13.3894
▁Dra	-13.3895
77	-13.3897
indicat	-13.39
shut	-13.3902
count	-13.3906
▁CU	-13.3906
shakos	-13.3906
▁Nic	-13.3906
needs	-13.3906
third	-13.3911
GE	-13.392
things	-13.392
▁separat	-13.3929
fish	-13.393
odor	-13.3932
Soft	-13.3934
rings	-13.3934
needless	-13.3937
YTHING	-13.3939
echnology	-13.394
keys	-13.3941
iterally	-13.3942
▁whil	-13.3943
mpered	-13.3943
auchos	-13.3943
▁tradition	-13.3944
tandard	-13.3946
pos	-13.3947
VI	-13.3947
▁characteristic	-13.3948
▁Wolverine	-13.3948
▁abrasion	-13.3948
▁project	-13.3948
▁muscle	-13.3949
▁cartoon	-13.3949
▁Egg	-13.3949
anks	-13.395
RIGHT	-13.3953
utter	-13.3953
▁ACT	-13.3956
▁inciden	-13.3956
▁Bel	-13.3956
16	-13.3958
breaker	-13.3961
▁slope	-13.3962
quiri	-13.3962
▁Tiger	-13.3963
▁alteration	-13.3963
▁dimension	-13.3964
▁document	-13.3964
▁errand	-13.3964
▁complement	-13.3964
▁ticket	-13.3964
exter	-13.3965
▁emb	-13.3965
Swi	-13.3965
▁disgu	-13.3968
▁snack	-13.3969
LIN	-13.3973
nkles	-13.3973
nova	-13.3974
zer	-13.3974
▁folk	-13.3975
heepskin	-13.3975
▁requirement	-13.3977
▁efficien	-13.3977
Ex	-13.3978
promot	-13.3979
cular	-13.3979
employe	-13.3981
▁wrinkl	-13.3981
10-12	-13.3982
▁awesom	-13.3983
▁patien	-13.3983
▁spil	-13.3984
5-3	-13.3984
qua	-13.3985
mooth	-13.3988
LANT	-13.3988
▁appreciat	-13.3989
couts	-13.399
▁ounce	-13.399
nimal	-13.3993
ection	-13.3994
grow	-13.3994
pools	-13.3994
▁Union	-13.3997
▁underpant	-13.4
▁squea	-13.4002
▁Pac	-13.4002
▁Birk	-13.4003
▁farmer	-13.4003
clasp	-13.4004
anti	-13.4005
minated	-13.4006
▁neighbo	-13.4007
pecial	-13.4009
trunks	-13.4009
8)	-13.4009
fear	-13.401
OTE	-13.401
stimated	-13.401
imwear	-13.4011
liv	-13.4011
LIPS	-13.4012
supported	-13.4013
po	-13.4014
EASED	-13.4015
cces	-13.4015
SN	-13.4016
▁disintegrat	-13.4016
▁Scot	-13.4017
-8	-13.4019
older	-13.4019
ging	-13.402
odd	-13.402
▁remin	-13.4021
▁breez	-13.4022
▁bounc	-13.4022
▁$39	-13.4022
desp	-13.4022
snatch	-13.4024
▁Sweat	-13.4024
▁$19	-13.4024
courage	-13.4025
▁Logi	-13.4027
▁47	-13.4027
▁categor	-13.4028
▁wander	-13.4029
DIF	-13.4029
OBE	-13.403
ORS	-13.403
▁retur	-13.403
▁5'8	-13.4031
nspir	-13.4031
▁Serious	-13.4032
mpressive	-13.4032
▁quart	-13.4032
▁exclusive	-13.4033
▁calculate	-13.4034
▁satisfie	-13.4034
▁ignore	-13.4034
Girl	-13.4034
nstructions	-13.4034
fleec	-13.4034
pret	-13.4034
organ	-13.4034
▁apparent	-13.4034
▁depict	-13.4036
▁successful	-13.4037
sulting	-13.4037
▁insulat	-13.4037
▁Purchase	-13.4037
▁cramp	-13.4037
expensiv	-13.4038
▁suff	-13.4038
▁conservati	-13.4038
▁afterward	-13.4039
▁Disappoint	-13.4039
▁eventual	-13.4039
▁(6	-13.404
▁incidental	-13.404
IDA	-13.404
arathon	-13.404
proper	-13.404
▁distress	-13.4041
▁Original	-13.4041
ummer	-13.4041
▁sudden	-13.4041
▁functi	-13.4041
nteresting	-13.4042
structi	-13.4042
conv	-13.4042
comm	-13.4042
▁INST	-13.4042
hol	-13.4042
OUGHT	-13.4042
1-2	-13.4043
eductive	-13.4043
nstructor	-13.4043
pronate	-13.4043
wful	-13.4044
RIV	-13.4045
wled	-13.4045
ustralia	-13.4045
GAIN	-13.4045
ajor	-13.4045
figur	-13.4045
▁Grant	-13.4046
eeboks	-13.4046
▁Burn	-13.4046
▁Final	-13.4047
finite	-13.4047
VO	-13.4047
reathable	-13.4048
ulate	-13.4048
plash	-13.4048
▁grippe	-13.4048
▁descripti	-13.4048
hhhh	-13.4049
▁draft	-13.4049
racelets	-13.4049
▁ventilat	-13.4049
TIS	-13.405
describ	-13.405
uxury	-13.405
▁Canad	-13.405
▁Rain	-13.405
beca	-13.405
ichigan	-13.405
▁Reebo	-13.405
ystem	-13.405
FULL	-13.4051
enuine	-13.4051
otorcycle	-13.4051
utterfly	-13.4051
paque	-13.4052
lumsy	-13.4052
▁communicat	-13.4052
KIN	-13.4052
ilitary	-13.4052
▁UG	-13.4052
ifficult	-13.4052
▁constructi	-13.4052
enerously	-13.4052
EEP	-13.4052
▁STEP	-13.4052
ortfolio	-13.4052
ushioned	-13.4052
EPPE	-13.4052
appened	-13.4052
nivers	-13.4052
▁volu	-13.4052
erchant	-13.4052
uxurious	-13.4053
▁PURCHAS	-13.4053
GIRL	-13.4053
▁recreation	-13.4053
onfident	-13.4053
▁abdom	-13.4053
remium	-13.4053
AVOR	-13.4053
ommunication	-13.4053
orrible	-13.4053
▁popula	-13.4053
PECTE	-13.4053
rofessional	-13.4053
leeping	-13.4053
nvelope	-13.4053
alifornia	-13.4053
▁STYL	-13.4053
xperience	-13.4053
amisole	-13.4053
VIN	-13.4053
▁undergarme	-13.4053
▁COMFORTABL	-13.4054
ightmare	-13.4054
▁boxerbri	-13.4054
▁exc	-13.4054
ibbon	-13.4054
▁integr	-13.4054
▁stabili	-13.4054
SUAL	-13.4054
▁AGAI	-13.4054
spective	-13.4054
declin	-13.4054
REFU	-13.4054
temporary	-13.4054
▁necessit	-13.4054
▁diabet	-13.4054
TIC	-13.4054
ordstrom	-13.4054
contra	-13.4054
▁Ameri	-13.4054
ightgown	-13.4054
petition	-13.4054
erwires	-13.4054
lightwei	-13.4054
▁Fantas	-13.4054
reviously	-13.4055
▁Nordst	-13.4055
BOO	-13.4055
▁CHRIST	-13.4055
▁circum	-13.4055
ATHER	-13.4055
isposable	-13.4055
▁Congrat	-13.4055
kenstocks	-13.4055
AIL	-13.4055
FORTABLE	-13.4055
profess	-13.4055
rgency	-13.4055
▁BREA	-13.4055
▁apolog	-13.4055
▁Charco	-13.4055
▁neuro	-13.4055
gnific	-13.4055
hibiti	-13.4055
▁UNDER	-13.4055
▁COMF	-13.4055
ligence	-13.4055
knowledge	-13.4055
▁Brav	-13.4055
▁MATER	-13.4055
igaride	-13.4055
yyyy	-13.4055
▁tailga	-13.4055
PEF	-13.4055
eleph	-13.4055
nancy	-13.4055
opolo	-13.4055
proach	-13.4055
▁GLA	-13.4055
Step	-13.4055
ossibl	-13.4055
oOo	-13.4055
hawl	-13.4055
ogie	-13.4055
OURS	-13.4055
Glory	-13.4055
▁RECO	-13.4055
cuffle	-13.4056
▁Outfit	-13.4056
armuff	-13.4056
iatric	-13.4056
sible	-13.4056
▁COMP	-13.4056
▁mechani	-13.4056
eague	-13.4056
EATH	-13.4056
illian	-13.4056
pedia	-13.4056
exic	-13.4057
autical	-13.4057
citi	-13.4057
▁minimi	-13.4057
eavier	-13.4057
RIC	-13.4057
ocation	-13.4057
▁composit	-13.4057
▁Minne	-13.4058
olumbia	-13.4058
2/3	-13.4058
▁earlie	-13.4058
ggli	-13.4058
▁PIC	-13.4059
▁Beaut	-13.4059
▁marvel	-13.4059
▁ALS	-13.4059
RIT	-13.4059
tifull	-13.4059
3.0	-13.4059
NTED	-13.4059
umbs	-13.4059
nemies	-13.4059
▁hop	-13.4059
drying	-13.4059
cci	-13.406
webs	-13.406
OTC	-13.406
CIN	-13.406
▁recover	-13.406
hhhhh	-13.4061
▁Person	-13.4061
alanc	-13.4061
flex	-13.4061
RONG	-13.4061
MATE	-13.4061
▁CONT	-13.4061
▁text	-13.4062
▁ENDE	-13.4062
aylor	-13.4062
uiet	-13.4062
LUS	-13.4062
irect	-13.4062
onestly	-13.4062
pants	-13.4063
ipated	-13.4063
▁Steel	-13.4063
VERT	-13.4063
ARB	-13.4063
CHE	-13.4064
▁histor	-13.4064
▁overpower	-13.4064
▁mount	-13.4064
EMS	-13.4065
▁REC	-13.4065
repelle	-13.4065
TUR	-13.4065
ulge	-13.4066
ditor	-13.4066
ensively	-13.4066
▁BOU	-13.4066
OTH	-13.4066
▁yea	-13.4067
▁stil	-13.4067
▁CUT	-13.4067
exico	-13.4068
EOUS	-13.4068
▁curio	-13.4068
CENT	-13.4068
▁Absol	-13.4068
▁smel	-13.4069
NNO	-13.4069
rgeo	-13.4069
Go	-13.407
irlfriend	-13.407
getti	-13.407
cient	-13.407
hr	-13.4071
oafer	-13.4071
abou	-13.4071
▁flopp	-13.4071
▁Marc	-13.4071
▁Luc	-13.4072
ILL	-13.4072
▁depart	-13.4072
PER	-13.4072
▁rotate	-13.4072
acture	-13.4073
HED	-13.4073
▁auth	-13.4074
irdle	-13.4074
eighed	-13.4074
oisebuster	-13.4074
ERNE	-13.4075
acation	-13.4075
▁competit	-13.4075
iquid	-13.4075
▁decl	-13.4076
▁zap	-13.4076
heek	-13.4076
scret	-13.4076
▁batter	-13.4076
ICS	-13.4077
profi	-13.4077
ciat	-13.4078
▁Scho	-13.4078
ssage	-13.4078
▁brace	-13.4078
ishment	-13.4078
MAC	-13.4079
▁PAN	-13.4079
rote	-13.4079
▁jac	-13.4079
ortions	-13.4079
OTTO	-13.4081
inflat	-13.4081
▁Shop	-13.4082
▁Abso	-13.4082
LK	-13.4082
Acc	-13.4083
Book	-13.4083
▁empt	-13.4083
▁unfa	-13.4083
▁summ	-13.4083
opho	-13.4085
PRI	-13.4085
▁devi	-13.4085
▁WEEK	-13.4085
icity	-13.4085
hro	-13.4085
▁dec	-13.4085
▁poli	-13.4086
Bu	-13.4086
OF	-13.4086
cured	-13.4086
falls	-13.4086
▁Con	-13.4086
ugust	-13.4087
RET	-13.4087
nugly	-13.4088
ounge	-13.4088
▁inn	-13.4089
jori	-13.4089
exceptional	-13.4089
edge	-13.4089
ari	-13.409
▁Cum	-13.4091
▁$39.9	-13.4091
culi	-13.4092
▁Cru	-13.4092
▁YO	-13.4092
!!!!!!!!!!	-13.4093
/200	-13.4093
cel	-13.4094
▁fibr	-13.4094
easant	-13.4094
▁differ	-13.4095
uccess	-13.4095
LAND	-13.4096
iety	-13.4096
posit	-13.4096
YR	-13.4097
etti	-13.4097
CKS	-13.4098
0.5	-13.4098
udge	-13.4098
▁transit	-13.4098
▁update	-13.4098
semble	-13.41
aminated	-13.4101
PED	-13.4102
▁Comf	-13.4102
quare	-13.4103
ANTA	-13.4103
cape	-13.4104
operate	-13.4104
UTS	-13.4104
EPS	-13.4105
▁KN	-13.4105
stances	-13.4105
speak	-13.4108
ndura	-13.4109
mmediate	-13.411
▁Birke	-13.411
▁squeak	-13.411
▁chemi	-13.4111
rently	-13.4111
▁demon	-13.4111
▁Ta	-13.4112
bat	-13.4113
ighter	-13.4114
ainted	-13.4115
▁Recom	-13.4115
YES	-13.4115
bov	-13.4117
▁expens	-13.412
▁perfor	-13.412
indow	-13.412
▁scal	-13.4121
given	-13.4121
iscovered	-13.4122
RIB	-13.4123
eadband	-13.4123
14	-13.4124
pstick	-13.4124
▁disgust	-13.4124
▁retr	-13.4124
▁ortho	-13.4125
everal	-13.4126
vapo	-13.4127
Ul	-13.4127
▁nas	-13.4127
waters	-13.4128
UGG	-13.4129
curre	-13.4129
IBLE	-13.4129
suck	-13.413
gs	-13.413
foll	-13.4131
olutions	-13.4131
hroom	-13.4131
Grips	-13.4133
▁arra	-13.4135
ifully	-13.4139
says	-13.4139
▁anticipate	-13.4139
attery	-13.4139
entine	-13.4142
gi	-13.4142
rgin	-13.4142
▁59	-13.4142
corder	-13.4143
igar	-13.4144
HES	-13.4144
rries	-13.4145
▁beau	-13.4145
DED	-13.4147
silv	-13.4147
6.5	-13.4148
▁LU	-13.4149
▁LIV	-13.4151
▁champ	-13.4151
SIN	-13.4152
▁revi	-13.4152
uarantee	-13.4153
igers	-13.4155
▁croc	-13.4156
mac	-13.4156
▁surf	-13.4156
ROO	-13.4157
SES	-13.4161
▁WEI	-13.4161
▁expose	-13.4162
oddess	-13.4163
rison	-13.4164
cP	-13.4164
fills	-13.4165
moto	-13.4167
rous	-13.4167
▁snowb	-13.4168
ssum	-13.4169
apid	-13.417
hoice	-13.417
▁ll	-13.417
▁Chi	-13.4171
ANTS	-13.4172
vice	-13.4172
WARE	-13.4175
riting	-13.4175
unctional	-13.4175
aps	-13.4177
rust	-13.4179
▁mini	-13.4181
DER	-13.4181
▁visibl	-13.4182
Yes	-13.4184
▁Card	-13.4185
▁practic	-13.4185
▁snatche	-13.4185
▁smil	-13.4186
doll	-13.4188
WS	-13.4189
▁Wel	-13.4189
▁careless	-13.419
nsulated	-13.4191
ART	-13.4194
elvet	-13.4196
neat	-13.4197
udg	-13.4198
▁splint	-13.4198
ogether	-13.42
▁Consi	-13.4203
nuous	-13.4204
ecting	-13.4206
iddle	-13.4208
▁credi	-13.4208
certa	-13.4209
NTS	-13.421
wnst	-13.421
thesis	-13.4213
▁lav	-13.4216
▁imagin	-13.4216
▁SWE	-13.4217
▁tool	-13.4219
peakers	-13.4222
shri	-13.4223
HIP	-13.4229
▁discont	-13.423
▁Mid	-13.423
mois	-13.4232
wner	-13.4233
▁Tr	-13.4233
chless	-13.4236
Cas	-13.4236
UP	-13.4238
MAKE	-13.4238
▁mig	-13.4239
usiness	-13.4239
▁Fur	-13.424
MY	-13.4241
egrees	-13.4243
dur	-13.4244
ndoor	-13.4245
cha	-13.4246
▁negl	-13.4247
tanks	-13.4249
mells	-13.4252
▁gut	-13.4253
ions	-13.4256
▁Hilfi	-13.4256
▁Surv	-13.4259
sho	-13.426
thanks	-13.4263
aster	-13.4264
ecure	-13.4264
▁yell	-13.4266
mely	-13.4266
5'1	-13.4266
oorly	-13.4267
▁mass	-13.4269
cence	-13.4272
▁Suppl	-13.4273
▁unbe	-13.4274
amping	-13.4274
stead	-13.4274
▁flogg	-13.4277
schoo	-13.4279
ackp	-13.428
Ra	-13.4281
▁US	-13.4282
▁cour	-13.4284
▁MM	-13.4285
warming	-13.4285
nality	-13.4287
▁RO	-13.4287
ident	-13.429
▁whit	-13.429
pieces	-13.429
mper	-13.4291
sum	-13.4293
▁grandda	-13.4294
▁spee	-13.4295
▁supplie	-13.4295
hatever	-13.4295
appo	-13.43
rovides	-13.4303
nishing	-13.4305
rangled	-13.4306
corn	-13.4306
NU	-13.4307
▁tu	-13.4307
nte	-13.4309
bal	-13.431
hands	-13.4311
▁exp	-13.4312
eeks	-13.4312
maker	-13.4315
istance	-13.4319
▁Carr	-13.432
desirable	-13.4325
▁BO	-13.4326
▁moth	-13.4329
Mall	-13.4332
▁Ov	-13.4336
▁sam	-13.4336
jam	-13.4341
SHP	-13.4342
▁mater	-13.4342
▁bathro	-13.4345
emper	-13.4346
▁fren	-13.4347
liding	-13.4347
idiculous	-13.4348
insu	-13.4349
uation	-13.4349
bump	-13.435
▁frequent	-13.4351
boxing	-13.4353
kid	-13.4354
feed	-13.4358
1100	-13.4359
pandex	-13.4359
GES	-13.436
▁hol	-13.4361
▁feat	-13.4361
EVI	-13.4362
▁poss	-13.4362
enni	-13.4363
icated	-13.437
▁ordinar	-13.4373
representation	-13.4374
ystic	-13.4375
▁versi	-13.4377
source	-13.4378
thetic	-13.4379
El	-13.438
Nor	-13.4387
▁disg	-13.4388
umps	-13.4393
▁blis	-13.4395
▁warn	-13.4396
▁guard	-13.4399
▁gag	-13.4405
ollar	-13.4406
Tom	-13.4408
▁(5'	-13.441
▁jer	-13.4418
▁Eg	-13.4423
fu	-13.4425
vis	-13.4432
incide	-13.4438
topped	-13.444
▁fad	-13.4443
ostage	-13.4444
border	-13.4454
IME	-13.4454
▁Fun	-13.4458
▁DES	-13.4465
ppy	-13.4469
htm	-13.4471
erson	-13.4472
dad	-13.4472
ishes	-13.4473
▁assistan	-13.4474
▁publi	-13.4475
ral	-13.4476
umped	-13.4483
rag	-13.4486
TLY	-13.4487
station	-13.449
Ver	-13.4492
stones	-13.4492
07)	-13.4496
charm	-13.4507
ool	-13.4516
▁WEE	-13.4516
rop	-13.4516
alism	-13.4522
▁desir	-13.4524
past	-13.453
shows	-13.4531
▁eyel	-13.4534
▁trac	-13.4543
▁locat	-13.4544
▁(6.	-13.4545
compara	-13.4552
Am	-13.4553
deni	-13.4557
▁Vie	-13.4557
nic	-13.456
thless	-13.4567
onstruction	-13.4569
▁CL	-13.4571
fashioni	-13.4573
▁SER	-13.4584
▁disse	-13.4585
olor	-13.4585
▁col	-13.4588
yfull	-13.4595
▁Av	-13.4599
tive	-13.4601
▁traveler	-13.4603
shot	-13.4605
▁Guar	-13.4606
stripe	-13.4606
NG	-13.4607
LET	-13.4607
▁GAL	-13.4611
lleg	-13.4614
▁bil	-13.4617
CTU	-13.462
▁bush	-13.463
boys	-13.4631
etched	-13.4636
drum	-13.464
▁breastf	-13.464
seen	-13.4646
▁strang	-13.4647
EAR	-13.4663
OPP	-13.4664
ONCE	-13.4667
tively	-13.4668
otic	-13.4673
10.0	-13.4673
ities	-13.4674
LP	-13.468
HOW	-13.4681
elas	-13.4683
▁"8	-13.4686
native	-13.4688
aks	-13.4689
▁mill	-13.4689
▁tea	-13.4689
▁34-3	-13.4691
solution	-13.4694
ain	-13.4696
Note	-13.4697
signi	-13.4698
ctive	-13.4699
▁expans	-13.4702
wal	-13.4703
▁glim	-13.4703
TIP	-13.4705
randfather	-13.4718
▁Yea	-13.4718
MIL	-13.4718
▁merc	-13.472
vest	-13.4721
pirit	-13.4721
bags	-13.4727
▁FAC	-13.4731
OS	-13.4731
LOSE	-13.4736
▁mac	-13.4739
etite	-13.474
arget	-13.4743
cs	-13.4743
▁bru	-13.4744
runk	-13.4746
▁BU	-13.4747
gents	-13.4755
lation	-13.4757
uite	-13.4758
▁scare	-13.4762
9"	-13.4762
boo	-13.4763
▁(20	-13.4763
▁Ne	-13.4768
asily	-13.4771
circle	-13.4774
▁prot	-13.4776
Gi	-13.4782
▁SUP	-13.4785
ootgear	-13.4787
ect	-13.479
ensions	-13.4791
hopping	-13.4792
icky	-13.4792
ckie	-13.4794
▁Gri	-13.4802
illi	-13.4805
ached	-13.4805
TAN	-13.481
rta	-13.4825
ippe	-13.4827
head	-13.4835
ila	-13.4837
erizing	-13.4838
Can	-13.4844
cone	-13.4846
ively	-13.485
ubber	-13.4854
▁Wall	-13.4856
echer	-13.4861
DOR	-13.4868
30-	-13.4878
onist	-13.4879
2110	-13.4881
mill	-13.4882
LOU	-13.4885
▁milli	-13.489
aints	-13.489
▁edit	-13.4891
▁Blu	-13.4895
STRI	-13.49
-35	-13.4901
▁wel	-13.4904
urvived	-13.4908
27.	-13.4912
whe	-13.4923
arker	-13.4926
toward	-13.4927
▁attache	-13.4945
▁GRE	-13.4948
types	-13.4959
asion	-13.4962
squ	-13.4963
posed	-13.4965
utstanding	-13.4966
oderate	-13.4971
xes	-13.4972
Dis	-13.4981
▁;-	-13.4984
win	-13.4986
ys	-13.499
oted	-13.4991
130	-13.4993
irt	-13.4998
nds	-13.5004
slight	-13.5008
leecy	-13.5013
▁Hall	-13.5016
bon	-13.5019
5.0	-13.5021
gau	-13.5025
▁Op	-13.5026
gant	-13.5031
Look	-13.5038
earl	-13.5053
resses	-13.5063
usive	-13.5064
ombi	-13.5065
1.0	-13.5071
rops	-13.5073
tically	-13.5079
ka	-13.508
▁12/	-13.5082
tip	-13.5086
bran	-13.5088
nation	-13.5091
tension	-13.5093
▁Kne	-13.5102
▁ble	-13.5115
sked	-13.5116
sive	-13.5135
▁diss	-13.514
Runn	-13.5157
gle	-13.5157
120	-13.5166
reaks	-13.517
▁opt	-13.5182
▁boa	-13.5187
▁defen	-13.519
nsion	-13.5202
bel	-13.5207
finger	-13.5208
adjusted	-13.5236
▁Sigh	-13.5237
ques	-13.5257
wimmer	-13.5262
▁acces	-13.5269
Ch	-13.5272
aven	-13.5279
9!	-13.528
▁unfor	-13.5286
trap	-13.5287
▁vis	-13.529
lean	-13.5291
wears	-13.5297
omorrow	-13.5297
gone	-13.5299
llow	-13.53
▁Sport	-13.5326
duct	-13.5345
arely	-13.5349
ffer	-13.5356
▁wring	-13.5356
lways	-13.536
GN	-13.5377
▁intim	-13.5379
fin	-13.539
............	-13.5393
▁repell	-13.5415
▁ve	-13.5422
▁lunche	-13.543
▁strik	-13.544
▁fau	-13.5447
hate	-13.5451
▁tail	-13.5453
▁gar	-13.5456
Mo	-13.5457
TILL	-13.5458
▁EM	-13.5468
▁sic	-13.5473
?!!	-13.5484
▁rea	-13.5485
immed	-13.5488
▁fas	-13.5489
brows	-13.5498
apest	-13.5499
comb	-13.5507
atch	-13.5509
rella	-13.551
eviews	-13.5511
▁Hud	-13.5514
nters	-13.5517
lli	-13.5517
▁BL	-13.5517
assed	-13.5544
▁beac	-13.5544
ci	-13.555
Lin	-13.555
vory	-13.5556
86	-13.5564
'7"	-13.5569
serve	-13.557
oise	-13.5573
aist	-13.5604
olders	-13.5613
epeated	-13.5617
aware	-13.5626
ensed	-13.5657
▁NO	-13.566
▁PL	-13.5662
mb	-13.5669
pri	-13.5675
nez	-13.5676
▁activ	-13.568
▁Bir	-13.5693
▁cycli	-13.5696
▁jok	-13.5697
itting	-13.57
▁temper	-13.5709
rific	-13.5717
▁Ric	-13.5752
▁Ac	-13.5755
ipper	-13.5766
mont	-13.5767
dals	-13.5768
stres	-13.5773
pirat	-13.578
▁fortun	-13.5782
pre	-13.5789
RMA	-13.5789
rack	-13.5798
usly	-13.58
ightsee	-13.5805
▁mate	-13.5808
ct	-13.5813
tum	-13.5817
▁den	-13.5821
▁boo	-13.5822
athlete	-13.5828
$22	-13.5831
unching	-13.5835
US	-13.5842
In	-13.5844
wards	-13.5848
ctation	-13.5851
▁Stat	-13.5861
ecided	-13.589
raction	-13.5896
▁Swi	-13.5898
▁Cham	-13.5905
▁performe	-13.5908
cell	-13.5941
KEY	-13.5943
RRI	-13.5951
▁leo	-13.596
▁Boys	-13.5969
▁Sant	-13.5981
ham	-13.5982
Bl	-13.5984
chase	-13.5987
▁brid	-13.5991
ickness	-13.5991
dated	-13.5996
IVE	-13.6004
ering	-13.6007
▁SMA	-13.6018
79	-13.6019
▁dura	-13.6028
ncredibly	-13.6031
fat	-13.6043
rac	-13.6044
▁plac	-13.608
▁discon	-13.609
alidad	-13.61
▁AR	-13.6105
ded	-13.6119
▁seve	-13.6119
▁atti	-13.6138
osity	-13.6144
▁Mil	-13.6182
rite	-13.6185
▁lad	-13.619
gues	-13.6205
eman	-13.621
ura	-13.6213
▁Inter	-13.622
▁Loc	-13.6228
last	-13.623
omme	-13.6233
pplies	-13.6237
chy	-13.6239
▁clos	-13.6241
shes	-13.6244
cking	-13.6254
"-	-13.6263
fect	-13.6264
phy	-13.6266
▁6/2	-13.6266
▁commit	-13.6276
▁tendo	-13.6281
▁Af	-13.6291
ctions	-13.6298
▁lea	-13.6313
formation	-13.633
▁playe	-13.6332
▁Ag	-13.6335
▁AL	-13.6372
meth	-13.6375
sters	-13.6375
ractical	-13.6381
▁loosen	-13.6384
▁exam	-13.6394
bby	-13.6408
seat	-13.6418
chang	-13.6419
▁Oat	-13.6422
illed	-13.6446
▁CAL	-13.6452
wimsuit	-13.646
▁hous	-13.6465
▁charg	-13.6468
Be	-13.6473
▁contro	-13.6489
▁Cas	-13.6496
tie	-13.6496
saying	-13.6498
didas	-13.6509
ewed	-13.6531
balls	-13.6545
uddle	-13.6545
nders	-13.6561
laws	-13.6567
tling	-13.657
▁rela	-13.6593
▁lean	-13.6593
REN	-13.6595
eve	-13.6602
▁Shad	-13.6619
eet	-13.6629
▁lat	-13.6644
alent	-13.6681
▁tolera	-13.6693
▁Pin	-13.6705
6.	-13.6712
saving	-13.6726
haven	-13.6727
urp	-13.6752
gest	-13.6768
ked	-13.677
ich	-13.6786
▁irri	-13.6788
eeled	-13.6796
net	-13.6816
▁butterfl	-13.6839
rille	-13.686
earch	-13.6868
Tru	-13.6887
djustable	-13.6921
▁gree	-13.6921
iver	-13.6933
til	-13.6951
▁gi	-13.6955
pla	-13.696
▁Sma	-13.6978
▁tooth	-13.6982
taste	-13.7003
oston	-13.7011
rding	-13.702
uses	-13.7026
ops	-13.7037
sun	-13.7048
eful	-13.7052
▁zi	-13.7056
ips	-13.7062
▁Clas	-13.7074
ands	-13.7076
▁Ban	-13.7081
bels	-13.7082
▁Sin	-13.7087
99	-13.7096
each	-13.7107
isp	-13.7117
▁roo	-13.7119
▁disclos	-13.7126
!...	-13.7146
▁boards	-13.7151
ustable	-13.7155
redit	-13.7157
razy	-13.7158
Pu	-13.7166
llen	-13.7172
▁travell	-13.7188
▁thro	-13.7195
▁soc	-13.7197
sy	-13.7204
▁9-1	-13.7262
▁overb	-13.7269
thigh	-13.7272
▁draws	-13.7309
harges	-13.7315
▁Pla	-13.7325
▁HOL	-13.7327
presentation	-13.7328
▁Sel	-13.7328
▁(10-	-13.7339
Giv	-13.7358
ships	-13.7364
note	-13.7374
▁mere	-13.7383
ours	-13.7386
▁insp	-13.7399
eria	-13.7414
fal	-13.7417
▁essen	-13.7427
rever	-13.743
dson	-13.7435
sual	-13.7437
ockports	-13.7467
Sh	-13.7469
▁----	-13.7489
STAN	-13.7493
▁gam	-13.7503
▁Fu	-13.7506
ors	-13.7539
igleaves	-13.7544
pread	-13.7549
ITY	-13.7558
rri	-13.7566
▁Visi	-13.758
Mis	-13.7592
▁WHI	-13.7611
tor	-13.7636
ky	-13.7642
▁$9.9	-13.7661
▁gem	-13.7668
ESH	-13.768
ranslati	-13.7691
0.00.	-13.7698
0.	-13.7706
▁brus	-13.7743
:)	-13.7748
▁sli	-13.7781
▁26.	-13.7784
▁Defi	-13.7816
orted	-13.7816
2-	-13.7819
PR	-13.782
▁comme	-13.7821
tions	-13.7872
▁ea	-13.788
uy	-13.7894
▁Grow	-13.7917
ppears	-13.7922
▁bran	-13.7926
sture	-13.7939
'4"	-13.797
ELI	-13.7986
shou	-13.8006
pti	-13.8013
▁Gra	-13.8019
oiletr	-13.8037
00.	-13.8053
▁Ka	-13.8054
fir	-13.8065
▁3/	-13.8071
▁doubl	-13.8093
yle	-13.8099
own	-13.8102
ris	-13.8136
itched	-13.8146
urry	-13.8156
laps	-13.8165
ADD	-13.819
fl	-13.8197
ncluded	-13.823
ovember	-13.8232
▁PROM	-13.8237
und	-13.8248
shorts	-13.8259
UNB	-13.828
aming	-13.828
quit	-13.8357
ttest	-13.8411
tem	-13.8437
OP	-13.8452
▁Lu	-13.8453
toms	-13.8479
duc	-13.8484
onde	-13.8499
oned	-13.8512
spe	-13.8514
stern	-13.8532
ook	-13.8539
▁centr	-13.8547
stated	-13.8578
pute	-13.8608
4"	-13.8609
▁$13.	-13.861
ille	-13.8628
nspired	-13.8651
▁sle	-13.8679
ean	-13.8691
9'	-13.8693
mula	-13.8694
▁spe	-13.8703
▁respon	-13.8779
▁clu	-13.8783
owned	-13.879
▁bite	-13.881
gly	-13.881
URSE	-13.8819
jo	-13.8825
je	-13.883
▁sel	-13.8838
74	-13.8871
ssi	-13.8882
▁REL	-13.8894
date	-13.8905
▁Gi	-13.8917
ator	-13.8951
ticking	-13.8986
vide	-13.8995
proved	-13.9002
,(	-13.9024
isle	-13.9032
nforcement	-13.9039
▁Bott	-13.9061
▁induce	-13.9082
roc	-13.9082
▁suspen	-13.9117
hrilled	-13.921
mmon	-13.922
/22	-13.9347
▁criti	-13.9355
ica	-13.9363
correctly	-13.9371
▁beginn	-13.939
tri	-13.9395
▁spec	-13.9407
▁recommends	-13.9415
wor	-13.9453
▁unl	-13.9475
▁mot	-13.949
-30	-13.9504
bor	-13.9533
den	-13.9541
▁org	-13.9584
loo	-13.9596
log	-13.9623
▁ful	-13.9648
▁wen	-13.967
▁Ord	-13.9712
hes	-13.9736
▁journ	-13.9784
ona	-13.979
hroughout	-13.9793
imply	-13.9794
iable	-13.9807
lax	-13.9814
rmen	-13.9816
ama	-13.9818
pit	-13.9843
▁FIN	-13.9855
signed	-13.9859
▁dre	-13.9863
;)	-13.9868
ackpack	-13.9922
▁dro	-13.9925
▁Barr	-13.9926
orate	-13.9929
chi	-13.9931
▁shor	-13.9952
cre	-13.9965
▁spo	-13.9969
media	-14.0011
likes	-14.0015
becom	-14.0028
▁dist	-14.0055
▁Don	-14.0063
ourse	-14.0084
▁rac	-14.0127
ists	-14.0132
llies	-14.0141
4-	-14.0152
▁Abo	-14.0164
▁experi	-14.0177
ished	-14.0212
▁collapsi	-14.022
▁discerni	-14.0223
vers	-14.0233
▁LE	-14.0281
loses	-14.0288
▁Sim	-14.0299
ouse	-14.0332
backs	-14.0337
SING	-14.0363
tig	-14.0402
stening	-14.0475
fore	-14.0479
bar	-14.0484
▁Gro	-14.0509
▁refu	-14.0524
uni	-14.055
▁fre	-14.0555
tter	-14.0593
ected	-14.0612
1/2	-14.0635
ya	-14.0653
vel	-14.066
allet	-14.0707
ECK	-14.0719
9/1	-14.0733
quali	-14.0752
-(	-14.0808
ht	-14.0852
gains	-14.0853
iest	-14.0856
▁Spo	-14.0881
rnament	-14.0896
▁squ	-14.09
lu	-14.1041
▁Si	-14.1063
lors	-14.1067
rmour	-14.1114
MM	-14.1146
▁followe	-14.1157
covering	-14.1173
ston	-14.1194
▁sat	-14.1197
fterwards	-14.1221
lla	-14.127
tear	-14.1271
eling	-14.1272
50.	-14.1344
▁Shipp	-14.1349
▁19.	-14.138
arment	-14.1397
ass	-14.1412
▁snows	-14.1417
▁deli	-14.1472
▁Fat	-14.1512
▁tens	-14.1529
▁appe	-14.1572
gon	-14.1576
ron	-14.1601
tch	-14.1628
▁recogniz	-14.1717
udde	-14.1718
▁Eag	-14.1718
▁trad	-14.1741
ker	-14.1746
tto	-14.1783
▁?	-14.1789
xe	-14.1792
▁fann	-14.1794
referabl	-14.182
▁clin	-14.1839
ens	-14.1849
fi	-14.1883
▁legg	-14.1909
hree	-14.1926
irst	-14.1931
▁Everyt	-14.1946
irline	-14.1998
▁importan	-14.204
▁inde	-14.2045
ittle	-14.2086
yth	-14.2118
'5"	-14.212
mm	-14.2123
........	-14.2134
▁Pack	-14.2161
ILE	-14.2269
stre	-14.228
1.	-14.2297
ats	-14.2305
ient	-14.2324
abl	-14.2329
ards	-14.2352
ennis	-14.2379
ids	-14.2425
ses	-14.2451
▁aime	-14.2552
ong	-14.2557
ttle	-14.2608
LA	-14.2611
sap	-14.2645
rue	-14.2661
▁Ob	-14.2721
▁calv	-14.275
nces	-14.2775
▁Pl	-14.2792
fers	-14.2813
anes	-14.2813
dow	-14.2894
▁greater	-14.2921
heirs	-14.2961
▁Hal	-14.2977
tend	-14.3028
▁mobil	-14.3063
sity	-14.3063
▁STR	-14.3083
▁Victori	-14.3144
ffice	-14.3168
edly	-14.3193
igin	-14.3197
emarkabl	-14.321
rig	-14.3265
'3"	-14.3283
smal	-14.3291
▁cre	-14.3316
27	-14.3359
has	-14.3372
▁toy	-14.3434
tuated	-14.3437
)).	-14.3486
astened	-14.3488
▁pant	-14.3503
ugged	-14.3558
ki	-14.3608
gen	-14.364
adding	-14.3687
▁plea	-14.3699
yal	-14.3707
▁memor	-14.3711
NDS	-14.3713
ction	-14.3753
ctic	-14.382
orbi	-14.3827
▁livel	-14.3829
▁Tho	-14.3882
lymp	-14.3943
▁aff	-14.3969
rrrrr	-14.3971
58	-14.3981
netic	-14.3981
▁happie	-14.4001
rom	-14.4033
▁loosene	-14.4049
angle	-14.4055
hen	-14.4061
dal	-14.4161
mend	-14.4213
Sm	-14.4238
avy	-14.4264
augh	-14.4304
▁unc	-14.4313
▁grea	-14.4382
gra	-14.4423
ift	-14.4568
ssing	-14.4586
▁Bas	-14.4589
ANCE	-14.461
au	-14.4668
▁stripe	-14.4705
▁arou	-14.471
q	-14.7891
